{
  "version": "1.0",
  "truncation": null,
  "padding": null,
  "added_tokens": [
    {
      "id": 0,
      "content": "<pad>",
      "single_word": false,
      "lstrip": false,
      "rstrip": false,
      "normalized": false,
      "special": true
    },
    {
      "id": 1,
      "content": "<sos>",
      "single_word": false,
      "lstrip": false,
      "rstrip": false,
      "normalized": false,
      "special": true
    },
    {
      "id": 2,
      "content": "<eos>",
      "single_word": false,
      "lstrip": false,
      "rstrip": false,
      "normalized": false,
      "special": true
    },
    {
      "id": 3,
      "content": "<title>",
      "single_word": false,
      "lstrip": false,
      "rstrip": false,
      "normalized": false,
      "special": true
    },
    {
      "id": 4,
      "content": "<eotitle>",
      "single_word": false,
      "lstrip": false,
      "rstrip": false,
      "normalized": false,
      "special": true
    }
  ],
  "normalizer": null,
  "pre_tokenizer": {
    "type": "ByteLevel",
    "add_prefix_space": true,
    "trim_offsets": true,
    "use_regex": true
  },
  "post_processor": null,
  "decoder": {
    "type": "ByteLevel",
    "add_prefix_space": true,
    "trim_offsets": true,
    "use_regex": true
  },
  "model": {
    "type": "BPE",
    "dropout": null,
    "unk_token": null,
    "continuing_subword_prefix": null,
    "end_of_word_suffix": null,
    "fuse_unk": false,
    "byte_fallback": false,
    "vocab": {
      "<pad>": 0,
      "<sos>": 1,
      "<eos>": 2,
      "<title>": 3,
      "<eotitle>": 4,
      "!": 5,
      "(": 6,
      ")": 7,
      ",": 8,
      ".": 9,
      "1": 10,
      "2": 11,
      "3": 12,
      ":": 13,
      ";": 14,
      "<": 15,
      ">": 16,
      "?": 17,
      "A": 18,
      "B": 19,
      "C": 20,
      "D": 21,
      "E": 22,
      "F": 23,
      "G": 24,
      "H": 25,
      "I": 26,
      "J": 27,
      "K": 28,
      "L": 29,
      "M": 30,
      "N": 31,
      "O": 32,
      "P": 33,
      "Q": 34,
      "R": 35,
      "S": 36,
      "T": 37,
      "U": 38,
      "V": 39,
      "W": 40,
      "Y": 41,
      "Z": 42,
      "[": 43,
      "]": 44,
      "a": 45,
      "b": 46,
      "c": 47,
      "d": 48,
      "e": 49,
      "f": 50,
      "g": 51,
      "h": 52,
      "i": 53,
      "j": 54,
      "k": 55,
      "l": 56,
      "m": 57,
      "n": 58,
      "o": 59,
      "p": 60,
      "q": 61,
      "r": 62,
      "s": 63,
      "t": 64,
      "u": 65,
      "v": 66,
      "w": 67,
      "x": 68,
      "y": 69,
      "z": 70,
      "â": 71,
      "Ċ": 72,
      "Ġ": 73,
      "Ģ": 74,
      "Ķ": 75,
      "ĺ": 76,
      "Ļ": 77,
      "ľ": 78,
      "Ŀ": 79,
      "he": 80,
      "Ġt": 81,
      "Ġa": 82,
      "Ġthe": 83,
      "Ġs": 84,
      "Ġw": 85,
      "nd": 86,
      "in": 87,
      "âĢ": 88,
      "Ġand": 89,
      "Ġh": 90,
      "re": 91,
      "Ġb": 92,
      "ou": 93,
      "Ġhe": 94,
      "Ġo": 95,
      "Ġc": 96,
      "it": 97,
      "Ġf": 98,
      "Ġto": 99,
      "Ġm": 100,
      "ed": 101,
      "ll": 102,
      "er": 103,
      "at": 104,
      "âĢĻ": 105,
      "Ġd": 106,
      "Ġl": 107,
      "ing": 108,
      "as": 109,
      "is": 110,
      "ĠâĢ": 111,
      "Ġth": 112,
      "ĠâĢĺ": 113,
      "Ġg": 114,
      "en": 115,
      "an": 116,
      "or": 117,
      "id": 118,
      "Ġp": 119,
      "le": 120,
      "ow": 121,
      "Ġn": 122,
      "ar": 123,
      "Ġin": 124,
      "ot": 125,
      "on": 126,
      "Ġha": 127,
      "Ġbe": 128,
      "ld": 129,
      "Ġsa": 130,
      "me": 131,
      "Ġof": 132,
      "Ġy": 133,
      "ut": 134,
      "Ġher": 135,
      "Ġshe": 136,
      "Ġwas": 137,
      "Ġit": 138,
      "ĠT": 139,
      "Ġyou": 140,
      "ve": 141,
      "se": 142,
      "Ġon": 143,
      "ill": 144,
      "oo": 145,
      "gh": 146,
      "ĠĊ": 147,
      "Ġsaid": 148,
      ".âĢĻ": 149,
      "hen": 150,
      "ay": 151,
      "Ġthat": 152,
      "her": 153,
      "Ġso": 154,
      "Ġu": 155,
      "st": 156,
      "Ġas": 157,
      "ir": 158,
      "Ġwh": 159,
      "ver": 160,
      "Ġr": 161,
      "im": 162,
      "ĠI": 163,
      "ght": 164,
      "Ġhis": 165,
      "ck": 166,
      "Ġe": 167,
      "Ġst": 168,
      "Ġfor": 169,
      "et": 170,
      "Ġhim": 171,
      "ith": 172,
      "Ġwe": 173,
      "Ġhad": 174,
      "ce": 175,
      "Ġk": 176,
      "out": 177,
      "Ġthey": 178,
      "Ġnot": 179,
      "ch": 180,
      "Ġwith": 181,
      "Ġca": 182,
      "ad": 183,
      "if": 184,
      "ent": 185,
      "ly": 186,
      "ould": 187,
      "ĠThe": 188,
      "Ġsh": 189,
      "Ġbut": 190,
      "Ġup": 191,
      "Ġall": 192,
      "om": 193,
      "ke": 194,
      "ood": 195,
      "Ġat": 196,
      "ri": 197,
      "Ġwill": 198,
      "Ġme": 199,
      "Ġdo": 200,
      "to": 201,
      "itt": 202,
      "es": 203,
      "Ġgo": 204,
      "Ġout": 205,
      ",âĢĻ": 206,
      "ĠA": 207,
      "Ġinto": 208,
      "Ġan": 209,
      "ast": 210,
      "lf": 211,
      "Ġse": 212,
      "ome": 213,
      "ain": 214,
      "ore": 215,
      "el": 216,
      "Ġis": 217,
      "red": 218,
      "ant": 219,
      "own": 220,
      "Ġcame": 221,
      "ĠH": 222,
      "Ġwhen": 223,
      "Ġwent": 224,
      "ind": 225,
      "ĠThen": 226,
      "Ġbr": 227,
      "Ġhave": 228,
      "ittle": 229,
      "Ġta": 230,
      "ight": 231,
      "ĠS": 232,
      "Ġre": 233,
      "one": 234,
      "ter": 235,
      "Ġlittle": 236,
      "Ġthem": 237,
      "Ġone": 238,
      "Ġch": 239,
      "very": 240,
      "il": 241,
      "Ġdown": 242,
      "other": 243,
      "all": 244,
      "Ġwere": 245,
      "ook": 246,
      "ard": 247,
      "!âĢĻ": 248,
      "un": 249,
      "Ġthere": 250,
      "ur": 251,
      "th": 252,
      "way": 253,
      "Ġmy": 254,
      "ell": 255,
      "Ġli": 256,
      "pp": 257,
      "?âĢĻ": 258,
      "Ġsp": 259,
      "Ġtoo": 260,
      "Ġne": 261,
      "ep": 262,
      "al": 263,
      "Ġ<": 264,
      "Ġno": 265,
      "Ġwho": 266,
      "and": 267,
      "self": 268,
      "Ġag": 269,
      "ong": 270,
      "ge": 271,
      "ought": 272,
      "qu": 273,
      "ĠW": 274,
      "ound": 275,
      "ven": 276,
      "Ġpr": 277,
      "ry": 278,
      "Ġaway": 279,
      "Ġking": 280,
      "hed": 281,
      "Ġby": 282,
      "ried": 283,
      "ave": 284,
      "Ġthis": 285,
      "Ġgre": 286,
      "Ġagain": 287,
      "Ġj": 288,
      "ust": 289,
      "ss": 290,
      "ĠB": 291,
      "ree": 292,
      "ret": 293,
      "Ġti": 294,
      "ife": 295,
      "ul": 296,
      "Ġwhi": 297,
      "ide": 298,
      "Ġcould": 299,
      "Ġqu": 300,
      "Ġal": 301,
      "Ġman": 302,
      "Ġvery": 303,
      "our": 304,
      "us": 305,
      "Ġfr": 306,
      "Ġde": 307,
      "Ġwhat": 308,
      "Ġwould": 309,
      "Ġle": 310,
      "Ġro": 311,
      "Ġlook": 312,
      "ick": 313,
      "here": 314,
      "Ġwor": 315,
      "Ġsome": 316,
      "ird": 317,
      "ĠHan": 318,
      "ack": 319,
      "Ġday": 320,
      "Ġtook": 321,
      "ie": 322,
      "Ġthen": 323,
      "Ġtheir": 324,
      "ild": 325,
      "Ġkn": 326,
      "Ġgi": 327,
      "ĠAnd": 328,
      "hat": 329,
      "Ġif": 330,
      "art": 331,
      "Ġoff": 332,
      "Ġtime": 333,
      "Ġhow": 334,
      "Ġsee": 335,
      "ouse": 336,
      "Ġhome": 337,
      "Ġyour": 338,
      "Ġdr": 339,
      "Ġdid": 340,
      "Ġare": 341,
      "ered": 342,
      "Ġupon": 343,
      "ĠG": 344,
      "ĠBut": 345,
      "aid": 346,
      "Ġgood": 347,
      "Ġab": 348,
      "Ġold": 349,
      "ather": 350,
      "Ġpe": 351,
      "Ġtw": 352,
      "Ġgr": 353,
      "Ġchild": 354,
      "ther": 355,
      "Ġbeg": 356,
      "Ġsu": 357,
      "am": 358,
      "Ġam": 359,
      "ough": 360,
      "ite": 361,
      "fore": 362,
      "op": 363,
      "ince": 364,
      "Ġgreat": 365,
      "Ġlong": 366,
      "ked": 367,
      "Ġshould": 368,
      "ĠSo": 369,
      "Ġpl": 370,
      "Ġsaw": 371,
      "ved": 372,
      "Ġcome": 373,
      "Ġcried": 374,
      "fter": 375,
      "orn": 376,
      "Ġfrom": 377,
      "Ġwhich": 378,
      "os": 379,
      "Ġbird": 380,
      "ble": 381,
      "Ġover": 382,
      "ĠC": 383,
      "Ġcl": 384,
      "Ġprince": 385,
      "ake": 386,
      "Ġwife": 387,
      "ĠWhen": 388,
      "ock": 389,
      "ened": 390,
      "Ġdoor": 391,
      "itle": 392,
      "Ġthought": 393,
      "Ġother": 394,
      "Ġcan": 395,
      "ĠHans": 396,
      "Ġabout": 397,
      "ever": 398,
      "nt": 399,
      "Ġhouse": 400,
      "Ġmother": 401,
      "ap": 402,
      "Ġtr": 403,
      "Ġshall": 404,
      "Ġlast": 405,
      "Ġtake": 406,
      "ig": 407,
      "ine": 408,
      "Ġfo": 409,
      "Ġbeen": 410,
      "Ġback": 411,
      "Ġfell": 412,
      "Ġbefore": 413,
      "Ġgold": 414,
      "Ġhead": 415,
      "Ġbea": 416,
      "Ġor": 417,
      "Ġthr": 418,
      "sel": 419,
      "urn": 420,
      "Ġhand": 421,
      "Ġfe": 422,
      "thing": 423,
      "au": 424,
      "uck": 425,
      "Ġget": 426,
      "Ġran": 427,
      "Ġeat": 428,
      "Ġbeaut": 429,
      "Ġtree": 430,
      "Ġafter": 431,
      "Ġwhere": 432,
      "lled": 433,
      "retel": 434,
      "Ġmust": 435,
      "Ġhimself": 436,
      "ĠGretel": 437,
      "hing": 438,
      "Ġwat": 439,
      "ink": 440,
      "ade": 441,
      "ace": 442,
      "ched": 443,
      "Ġsat": 444,
      "Ġway": 445,
      "Ġmore": 446,
      "Ġput": 447,
      "Ġsoon": 448,
      "Ġbegan": 449,
      "ak": 450,
      "Ġbo": 451,
      "Ġstill": 452,
      "Ġany": 453,
      "Ġtwo": 454,
      "Ġhor": 455,
      "Ġlo": 456,
      "Ġbeautif": 457,
      "air": 458,
      "Ġpo": 459,
      "leep": 460,
      "Ġnow": 461,
      "Ġwell": 462,
      "Ġlike": 463,
      "Ġhorse": 464,
      "ue": 465,
      "ic": 466,
      "hes": 467,
      "Ġwo": 468,
      "sw": 469,
      "nder": 470,
      "Ġbl": 471,
      "Ġcar": 472,
      "oman": 473,
      "Ġbeautiful": 474,
      "Ġv": 475,
      "Ġtill": 476,
      "Ġwoman": 477,
      "Ġhas": 478,
      "ves": 479,
      "irst": 480,
      "Ġansw": 481,
      "Ġtail": 482,
      "ĠR": 483,
      "ren": 484,
      "ers": 485,
      "ft": 486,
      "Ġset": 487,
      "Ġfl": 488,
      "Ġfather": 489,
      "Ġmade": 490,
      "Ġthan": 491,
      "ang": 492,
      "Ġonce": 493,
      "ĠM": 494,
      "Ġstr": 495,
      "Ġgive": 496,
      "Ġen": 497,
      "Ġlet": 498,
      "Ġus": 499,
      "Ġevery": 500,
      "ire": 501,
      "ass": 502,
      "ish": 503,
      "Ġgot": 504,
      "ach": 505,
      "ice": 506,
      "Ġwant": 507,
      "Ġmorn": 508,
      "Ġnothing": 509,
      "ĠHe": 510,
      "Ġmorning": 511,
      "pt": 512,
      "Ġcom": 513,
      "Ġanswered": 514,
      "ame": 515,
      "read": 516,
      "Ġbed": 517,
      "Ġco": 518,
      "Ġgave": 519,
      "Ġhapp": 520,
      "What": 521,
      "man": 522,
      "row": 523,
      "Ġwood": 524,
      "Ġheard": 525,
      "get": 526,
      "aught": 527,
      "um": 528,
      "Ġson": 529,
      "Ġfound": 530,
      "ars": 531,
      "Ġonly": 532,
      "aw": 533,
      "Ġmight": 534,
      "Ġlooked": 535,
      "age": 536,
      "ced": 537,
      "ne": 538,
      "Ġquite": 539,
      "ied": 540,
      "ls": 541,
      "ull": 542,
      "ĠL": 543,
      "Ġmu": 544,
      "Ġwater": 545,
      "ĠF": 546,
      "Ġwind": 547,
      "Ġeven": 548,
      "Ġwolf": 549,
      "gether": 550,
      "Ġmuch": 551,
      "Now": 552,
      "Ġfirst": 553,
      "een": 554,
      "rew": 555,
      "Ġtogether": 556,
      "Ġmay": 557,
      "ist": 558,
      "Ġnight": 559,
      "Ġcalled": 560,
      "Ġpoor": 561,
      "Ġtailor": 562,
      "oke": 563,
      "Ġbeh": 564,
      "Ġsay": 565,
      "ward": 566,
      "ĠO": 567,
      "Ġlay": 568,
      "Ġthing": 569,
      "Ġgir": 570,
      "Ġknow": 571,
      "Ġhowever": 572,
      "Ġprincess": 573,
      "Ġhere": 574,
      "Ġcut": 575,
      "Ġfri": 576,
      "Ġfore": 577,
      "ath": 578,
      "Ġdone": 579,
      "Ġherself": 580,
      "Ġstood": 581,
      "ful": 582,
      "ag": 583,
      "Ġturn": 584,
      "Ġsc": 585,
      "ate": 586,
      "Ġyoun": 587,
      "Ġpeas": 588,
      "now": 589,
      "ty": 590,
      "Ġmake": 591,
      "oom": 592,
      "Ġasked": 593,
      "ĠShe": 594,
      "Ġnever": 595,
      "Ġchildren": 596,
      "Ġgirl": 597,
      "Ġtold": 598,
      "eot": 599,
      "sos": 600,
      "title": 601,
      "Ġfle": 602,
      "ĠAt": 603,
      "Ġleft": 604,
      "eotitle": 605,
      "Good": 606,
      "âĢĶ": 607,
      "ount": 608,
      "Ġheart": 609,
      "Ġthree": 610,
      "Ġbrought": 611,
      "Ġqueen": 612,
      "Ġforest": 613,
      "ken": 614,
      "ted": 615,
      "wn": 616,
      "Ġcat": 617,
      "Ġdaught": 618,
      "ion": 619,
      "ose": 620,
      "xt": 621,
      "Ġsw": 622,
      "Ġho": 623,
      "Ġmill": 624,
      "Ġkill": 625,
      "Ġbring": 626,
      "Ġspr": 627,
      "Ġwork": 628,
      "ip": 629,
      "ous": 630,
      "Ġgone": 631,
      "Ġbet": 632,
      "Ġsho": 633,
      "Ġpeasant": 634,
      "end": 635,
      "Ġcow": 636,
      "Ġcook": 637,
      "Ġfast": 638,
      "Ġfind": 639,
      "Ġnext": 640,
      "Ġflew": 641,
      "Ġapp": 642,
      "Ġwa": 643,
      "Ġfire": 644,
      "Ġmis": 645,
      "Ġmaid": 646,
      "Ġunder": 647,
      "Ġround": 648,
      "Ġeach": 649,
      "pped": 650,
      "Ġwhile": 651,
      "Ġthrough": 652,
      "Ġevening": 653,
      "Ġbehind": 654,
      "Ġside": 655,
      "Ġop": 656,
      "Ġcon": 657,
      "Ġrun": 658,
      "ĠThey": 659,
      "est": 660,
      "led": 661,
      "Ġlaid": 662,
      "Ġthink": 663,
      "Ġgolden": 664,
      "Ġwindow": 665,
      "You": 666,
      "Ġsing": 667,
      "Ġwis": 668,
      "Ġwal": 669,
      "Ġhun": 670,
      "Ġdan": 671,
      "Ġbec": 672,
      "Ġey": 673,
      "ĠAs": 674,
      "Ġsuch": 675,
      "wards": 676,
      "ily": 677,
      "oy": 678,
      "Ġser": 679,
      "res": 680,
      "Ġhea": 681,
      "Ġasleep": 682,
      "Ġanother": 683,
      "Ġbride": 684,
      "Ġworld": 685,
      "Ġar": 686,
      "Ġgl": 687,
      "Ġpass": 688,
      "Ġgoing": 689,
      "Ġdaughter": 690,
      "Ġeyes": 691,
      "ĠE": 692,
      "Ġtell": 693,
      "ress": 694,
      "ise": 695,
      "Ġpick": 696,
      "Ġcare": 697,
      "ady": 698,
      "Ġjust": 699,
      "Ġsomething": 700,
      "eos": 701,
      "Ġfine": 702,
      "Ġmo": 703,
      "Ġyoung": 704,
      "ĠP": 705,
      "ĠNow": 706,
      "Ġsleep": 707,
      "ream": 708,
      "Ġcr": 709,
      "Ġdw": 710,
      "Ġunt": 711,
      "Ġwhite": 712,
      "ĠHansel": 713,
      "Ġfox": 714,
      "Ġwait": 715,
      "Ġown": 716,
      "owed": 717,
      "Ġmany": 718,
      "Ah": 719,
      "ier": 720,
      "ving": 721,
      "Ġbot": 722,
      "Ġgard": 723,
      "Ġun": 724,
      "Ġtable": 725,
      "Ġkne": 726,
      "selves": 727,
      "Ġuntil": 728,
      "Ġgarden": 729,
      "HE": 730,
      "pl": 731,
      "side": 732,
      "Ġour": 733,
      "Ġmer": 734,
      "Ġroom": 735,
      "Ġdog": 736,
      "The": 737,
      "Wh": 738,
      "dd": 739,
      "og": 740,
      "Ġaw": 741,
      "Ġye": 742,
      "ess": 743,
      "Ġdear": 744,
      "iece": 745,
      "by": 746,
      "mother": 747,
      "Ġfair": 748,
      "Ġlight": 749,
      "arf": 750,
      "ĠThere": 751,
      "aster": 752,
      "Ġleave": 753,
      "Ġapple": 754,
      "are": 755,
      "dr": 756,
      "zel": 757,
      "Ġsl": 758,
      "Ġche": 759,
      "ither": 760,
      "ister": 761,
      "idd": 762,
      "Ġpiece": 763,
      "Ġhair": 764,
      "Ġear": 765,
      "Ġwithout": 766,
      "Ġbrother": 767,
      "Ġenough": 768,
      "ump": 769,
      "Ġserv": 770,
      "Ġdwarf": 771,
      "drop": 772,
      "band": 773,
      "od": 774,
      "und": 775,
      "ĠJ": 776,
      "Ġsm": 777,
      "Ġsitt": 778,
      "Ġsil": 779,
      "Ġbig": 780,
      "Ġhear": 781,
      "Ġlar": 782,
      "Ġpret": 783,
      "ower": 784,
      "ark": 785,
      "Ġits": 786,
      "ĠTHE": 787,
      "ĠIn": 788,
      "Ġstand": 789,
      "Ġke": 790,
      "usband": 791,
      "Ġgiant": 792,
      "nowdrop": 793,
      "Ġsitting": 794,
      "co": 795,
      "ts": 796,
      "Ġsister": 797,
      "Ġcast": 798,
      "Ġcount": 799,
      "Ġri": 800,
      "ĠSnowdrop": 801,
      "Ġlive": 802,
      "Ġdead": 803,
      "ĠCh": 804,
      "Ġmiller": 805,
      "lp": 806,
      "Ġhelp": 807,
      "Ġcour": 808,
      "Ġfall": 809,
      "Ġmouse": 810,
      "Ġmaster": 811,
      "ase": 812,
      "Ġper": 813,
      "Ġple": 814,
      "arm": 815,
      "arrow": 816,
      "Ġgrand": 817,
      "Ġhappened": 818,
      "Ġbetter": 819,
      "ged": 820,
      "igh": 821,
      "ling": 822,
      "ove": 823,
      "Ġwhe": 824,
      "Ġfis": 825,
      "Ġfet": 826,
      "Ġfish": 827,
      "Ġmar": 828,
      "ask": 829,
      "Ġthrew": 830,
      "Ġyet": 831,
      "Ġright": 832,
      "Ġlooking": 833,
      "Ġgiven": 834,
      "Ġdrink": 835,
      "ully": 836,
      "Oh": 837,
      "ab": 838,
      "ĠK": 839,
      "Ġsun": 840,
      "Ġlife": 841,
      "leer": 842,
      "less": 843,
      "Ġseven": 844,
      "antic": 845,
      "Ġrest": 846,
      "oney": 847,
      "Ġthemselves": 848,
      "Ġclot": 849,
      "Ġcarry": 850,
      "Ġfright": 851,
      "Ġfriend": 852,
      "Ġknew": 853,
      "Ġcountry": 854,
      "ĠChantic": 855,
      "ĠChanticleer": 856,
      "ese": 857,
      "not": 858,
      "so": 859,
      "Ġsit": 860,
      "Ġbar": 861,
      "Ġbread": 862,
      "Ġfa": 863,
      "Ġstone": 864,
      "Ġkind": 865,
      "Ġseem": 866,
      "Ġtrue": 867,
      "Ġfoll": 868,
      "Ġhands": 869,
      "Ġservant": 870,
      "Ġkeep": 871,
      "Ġcastle": 872,
      "If": 873,
      "Well": 874,
      "eak": 875,
      "his": 876,
      "zed": 877,
      "Ġte": 878,
      "Ġtre": 879,
      "Ġsn": 880,
      "Ġhusband": 881,
      "Ġfull": 882,
      "Ġdis": 883,
      "Ġland": 884,
      "ones": 885,
      "Ġbest": 886,
      "urd": 887,
      "ways": 888,
      "Ġlived": 889,
      "Ġsparrow": 890,
      "Ġground": 891,
      "Ġblood": 892,
      "Ġsprang": 893,
      "Ġlarge": 894,
      "That": 895,
      "ber": 896,
      "for": 897,
      "ning": 898,
      "Ġred": 899,
      "Ġwine": 900,
      "Ġfat": 901,
      "Ġluck": 902,
      "ange": 903,
      "ord": 904,
      "orrow": 905,
      "ĠTom": 906,
      "Ġsold": 907,
      "Ġjoy": 908,
      "Ġalways": 909,
      "Ġword": 910,
      "Ġlonger": 911,
      "Ġplace": 912,
      "Ġwanted": 913,
      "lsie": 914,
      "Ġturned": 915,
      "Ġmiser": 916,
      "ies": 917,
      "ting": 918,
      "ure": 919,
      "Ġtry": 920,
      "Ġhill": 921,
      "Ġhard": 922,
      "Ġbu": 923,
      "Ġcre": 924,
      "Ġcle": 925,
      "Ġthy": 926,
      "ank": 927,
      "ses": 928,
      "ĠIt": 929,
      "Ġem": 930,
      "Ġate": 931,
      "Ġready": 932,
      "Ġalong": 933,
      "Ġsure": 934,
      "ĠCap": 935,
      "Ġcannot": 936,
      "Ġord": 937,
      "Ġboy": 938,
      "ĠRed": 939,
      "Ġkilled": 940,
      "Ġheav": 941,
      "bye": 942,
      "Ġgrandmother": 943,
      "No": 944,
      "able": 945,
      "pher": 946,
      "Ġsent": 947,
      "Ġmoney": 948,
      "Ġduck": 949,
      "Ġgri": 950,
      "let": 951,
      "Ġshepher": 952,
      "herman": 953,
      "Ġstay": 954,
      "Ġseen": 955,
      "Ġseco": 956,
      "Ġrepl": 957,
      "Ġlie": 958,
      "Ġgrew": 959,
      "ush": 960,
      "Ġdraw": 961,
      "Ġclose": 962,
      "ocked": 963,
      "airs": 964,
      "Ġcarried": 965,
      "ĠMy": 966,
      "Ġopen": 967,
      "ĠElsie": 968,
      "Ġstanding": 969,
      "Ġfisherman": 970,
      "Ġfrightened": 971,
      "Ġshepherd": 972,
      "Ġsecond": 973,
      "Ġreplied": 974,
      "Yes": 975,
      "ger": 976,
      "ying": 977,
      "Ġac": 978,
      "oud": 979,
      "itc": 980,
      "Ġmind": 981,
      "erick": 982,
      "atter": 983,
      "Ġbel": 984,
      "Ġsame": 985,
      "Ġend": 986,
      "Ġwept": 987,
      "rederick": 988,
      "unzel": 989,
      "Ġwhole": 990,
      "Ġprinces": 991,
      "apunzel": 992,
      "Ġthings": 993,
      "Ġhold": 994,
      "Ġwished": 995,
      "Ġwalked": 996,
      "Ġbecame": 997,
      "Ġboth": 998,
      "Ġyears": 999,
      "Ġsli": 1000,
      "iddle": 1001,
      "Ġpretty": 1002,
      "bb": 1003,
      "fe": 1004,
      "ive": 1005,
      "ol": 1006,
      "itch": 1007,
      "Ġfing": 1008,
      "Ġdes": 1009,
      "Ġled": 1010,
      "Ġlist": 1011,
      "Ġthird": 1012,
      "Ġpig": 1013,
      "Ġname": 1014,
      "Ġsad": 1015,
      "Ġask": 1016,
      "chant": 1017,
      "Ġneed": 1018,
      "Ġjump": 1019,
      "ief": 1020,
      "Ġfeel": 1021,
      "Ġanything": 1022,
      "ĠOne": 1023,
      "Ġmaiden": 1024,
      "Ġfetch": 1025,
      "Ġclothes": 1026,
      "Ġheavy": 1027,
      "ND": 1028,
      "ared": 1029,
      "dom": 1030,
      "ff": 1031,
      "fully": 1032,
      "gth": 1033,
      "las": 1034,
      "oice": 1035,
      "tain": 1036,
      "tun": 1037,
      "what": 1038,
      "Ġthee": 1039,
      "Ġwish": 1040,
      "Ġdrew": 1041,
      "Ġthou": 1042,
      "Ġpock": 1043,
      "Ġbeast": 1044,
      "Ġret": 1045,
      "Ġmyself": 1046,
      "Ġleg": 1047,
      "Ġfeast": 1048,
      "Ġlove": 1049,
      "Ġeverything": 1050,
      "Ġcoming": 1051,
      "Ġshoe": 1052,
      "Ġshoes": 1053,
      "Ġopened": 1054,
      "Ġwalk": 1055,
      "Ġpassed": 1056,
      "Ġmerry": 1057,
      "Ġpocket": 1058,
      "We": 1059,
      "gry": 1060,
      "ner": 1061,
      "old": 1062,
      "pe": 1063,
      "ud": 1064,
      "ug": 1065,
      "up": 1066,
      "Ġent": 1067,
      "Ġaf": 1068,
      "Ġwret": 1069,
      "Ġbre": 1070,
      "ity": 1071,
      "Ġfar": 1072,
      "Ġmet": 1073,
      "Ġdark": 1074,
      "Ġkitc": 1075,
      "Ġdoes": 1076,
      "ĠAfter": 1077,
      "Ġnear": 1078,
      "Ġroad": 1079,
      "Ġplay": 1080,
      "Ġhappy": 1081,
      "Ġawoke": 1082,
      "Ġsmall": 1083,
      "Ġcourt": 1084,
      "Ġsoldier": 1085,
      "Ġjumped": 1086,
      "Ġkitchen": 1087,
      "Where": 1088,
      "ness": 1089,
      "the": 1090,
      "Ġair": 1091,
      "Ġthese": 1092,
      "ouble": 1093,
      "Ġcry": 1094,
      "ated": 1095,
      "ings": 1096,
      "asy": 1097,
      "Ġgue": 1098,
      "orind": 1099,
      "oose": 1100,
      "Ġeld": 1101,
      "Ġforced": 1102,
      "Ġneck": 1103,
      "Ġtired": 1104,
      "Ġalso": 1105,
      "Ġcomes": 1106,
      "Ġeaten": 1107,
      "Ġvoice": 1108,
      "Ġflower": 1109,
      "Ġenchant": 1110,
      "ĠFrederick": 1111,
      "resent": 1112,
      "ĠJorind": 1113,
      "Ġsilver": 1114,
      "Ġpleas": 1115,
      "Ġreturn": 1116,
      "Ġguest": 1117,
      "It": 1118,
      "My": 1119,
      "ached": 1120,
      "ix": 1121,
      "ime": 1122,
      "Ġsk": 1123,
      "Ġhigh": 1124,
      "oun": 1125,
      "Ġcell": 1126,
      "Ġcart": 1127,
      "Ġmatter": 1128,
      "Ġlying": 1129,
      "ott": 1130,
      "utt": 1131,
      "Ġass": 1132,
      "Ġever": 1133,
      "outh": 1134,
      "chief": 1135,
      "els": 1136,
      "elt": 1137,
      "ĠHow": 1138,
      "ĠWhat": 1139,
      "Ġquick": 1140,
      "Ġalread": 1141,
      "Ġrod": 1142,
      "Ġamong": 1143,
      "ople": 1144,
      "Ġtrave": 1145,
      "Ġthrow": 1146,
      "Ġloved": 1147,
      "Ġblow": 1148,
      "Ġblack": 1149,
      "ĠRapunzel": 1150,
      "Ġstraw": 1151,
      "Ġsinging": 1152,
      "Ġheaven": 1153,
      "Ġglass": 1154,
      "Ġmost": 1155,
      "Why": 1156,
      "Ġfinger": 1157,
      "Ġeldest": 1158,
      "Ġcellar": 1159,
      "Ġalready": 1160,
      "How": 1161,
      "ail": 1162,
      "ches": 1163,
      "you": 1164,
      "Ġwall": 1165,
      "Ġwitch": 1166,
      "Ġhund": 1167,
      "Ġfour": 1168,
      "Ġmouth": 1169,
      "Ġdress": 1170,
      "Ġpu": 1171,
      "ons": 1172,
      "Ġbear": 1173,
      "oof": 1174,
      "Ġwhy": 1175,
      "Ġra": 1176,
      "Ġstep": 1177,
      "Ġweep": 1178,
      "ada": 1179,
      "ift": 1180,
      "Ġshut": 1181,
      "that": 1182,
      "alada": 1183,
      "gest": 1184,
      "ĠWh": 1185,
      "Ġalone": 1186,
      "ushed": 1187,
      "Ġdeath": 1188,
      "Ġknocked": 1189,
      "Ġdrove": 1190,
      "Ġpeople": 1191,
      "Ġtrouble": 1192,
      "Ġfoot": 1193,
      "Ġanyone": 1194,
      "ney": 1195,
      "ĠOn": 1196,
      "Ġdanced": 1197,
      "Ġfairy": 1198,
      "Ġrich": 1199,
      "Ġmarried": 1200,
      "Ġgrie": 1201,
      "Ġrode": 1202,
      "Ġhundred": 1203,
      "Alas": 1204,
      "ac": 1205,
      "ale": 1206,
      "but": 1207,
      "ere": 1208,
      "ized": 1209,
      "opped": 1210,
      "ro": 1211,
      "witt": 1212,
      "xe": 1213,
      "Ġsle": 1214,
      "inner": 1215,
      "Ġhat": 1216,
      "Ġhast": 1217,
      "Ġball": 1218,
      "Ġcorn": 1219,
      "Ġfood": 1220,
      "Ġface": 1221,
      "Ġtop": 1222,
      "Ġtow": 1223,
      "Ġtowards": 1224,
      "Ġdon": 1225,
      "ished": 1226,
      "Ġthus": 1227,
      "Ġthough": 1228,
      "ence": 1229,
      "Ġpal": 1230,
      "Ġsafe": 1231,
      "Ġashes": 1232,
      "Ġroof": 1233,
      "Ġel": 1234,
      "Ġoutside": 1235,
      "elve": 1236,
      "Ġbran": 1237,
      "Ġrem": 1238,
      "Ġspeak": 1239,
      "Ġnoise": 1240,
      "Ġfrog": 1241,
      "Ġdeep": 1242,
      "icked": 1243,
      "artlet": 1244,
      "Ġtwelve": 1245,
      "Ġfellow": 1246,
      "Ġafterwards": 1247,
      "Ġwatch": 1248,
      "Ġvill": 1249,
      "Ġcomp": 1250,
      "umb": 1251,
      "ĠPartlet": 1252,
      "Ġwaiting": 1253,
      "Ġcheese": 1254,
      "Ġseemed": 1255,
      "Ġprincesses": 1256,
      "Ġwretch": 1257,
      "Ġpalace": 1258,
      "LE": 1259,
      "az": 1260,
      "bod": 1261,
      "hp": 1262,
      "ile": 1263,
      "ks": 1264,
      "ned": 1265,
      "per": 1266,
      "raid": 1267,
      "tle": 1268,
      "ywitt": 1269,
      "Ġind": 1270,
      "Ġaxe": 1271,
      "Ġsnow": 1272,
      "Ġbur": 1273,
      "ertain": 1274,
      "âĢĻ;": 1275,
      "Ġdel": 1276,
      "Ġdied": 1277,
      "Ġloud": 1278,
      "Ġgate": 1279,
      "Ġnut": 1280,
      "Ġhalf": 1281,
      "Ġhaving": 1282,
      "ĠThis": 1283,
      "ool": 1284,
      "Ġuse": 1285,
      "Ġforth": 1286,
      "Ġcalf": 1287,
      "ĠAND": 1288,
      "Ġseized": 1289,
      "ained": 1290,
      "Ġtaken": 1291,
      "Ġreached": 1292,
      "ally": 1293,
      "unip": 1294,
      "Ġprom": 1295,
      "Ġkingdom": 1296,
      "Ġagainst": 1297,
      "Ġjunip": 1298,
      "ult": 1299,
      "Ġrobb": 1300,
      "ield": 1301,
      "Ġyourself": 1302,
      "atherine": 1303,
      "Ġbirds": 1304,
      "ĠCatherine": 1305,
      "Ġlost": 1306,
      "Ġyoungest": 1307,
      "Goodbye": 1308,
      "Ġswe": 1309,
      "Ġcont": 1310,
      "Ġhunts": 1311,
      "Ġdance": 1312,
      "ĠAshp": 1313,
      "Ġdwarfs": 1314,
      "ĠKywitt": 1315,
      "Ġfollowed": 1316,
      "Ġcrept": 1317,
      "Ġafraid": 1318,
      "uttel": 1319,
      "body": 1320,
      "Ġjuniper": 1321,
      "ĠAshputtel": 1322,
      "AN": 1323,
      "Be": 1324,
      "Th": 1325,
      "aight": 1326,
      "ived": 1327,
      "king": 1328,
      "wise": 1329,
      "yal": 1330,
      "ĠD": 1331,
      "Ġsong": 1332,
      "Ġburn": 1333,
      "Ġfelt": 1334,
      "Ġfield": 1335,
      "Ġmiddle": 1336,
      "erchief": 1337,
      "Ġdinner": 1338,
      "Ġlen": 1339,
      "Ġlady": 1340,
      "ised": 1341,
      "ison": 1342,
      "Ġgoose": 1343,
      "ort": 1344,
      "Ġpot": 1345,
      "imb": 1346,
      "cked": 1347,
      "Ġex": 1348,
      "Ġstret": 1349,
      "Ġstones": 1350,
      "Ġforg": 1351,
      "Ġcau": 1352,
      "Ġsea": 1353,
      "Ġcham": 1354,
      "ilt": 1355,
      "Ġpray": 1356,
      "Ġgreen": 1357,
      "Ġrose": 1358,
      "Ġroyal": 1359,
      "Ġfear": 1360,
      "Ġfeet": 1361,
      "Ġstraight": 1362,
      "ĠLittle": 1363,
      "ĠFalada": 1364,
      "Ġscream": 1365,
      "Ġtrees": 1366,
      "tune": 1367,
      "Ġenchantress": 1368,
      "Ġtower": 1369,
      "Ġvillage": 1370,
      "Ġlength": 1371,
      "But": 1372,
      "ct": 1373,
      "ev": 1374,
      "ear": 1375,
      "gain": 1376,
      "how": 1377,
      "ious": 1378,
      "joy": 1379,
      "my": 1380,
      "oll": 1381,
      "ps": 1382,
      "she": 1383,
      "Ġtask": 1384,
      "Ġale": 1385,
      "Ġsound": 1386,
      "Ġwild": 1387,
      "Ġwicked": 1388,
      "ina": 1389,
      "Ġhour": 1390,
      "Ġhang": 1391,
      "Ġben": 1392,
      "Ġheld": 1393,
      "Ġob": 1394,
      "Ġcur": 1395,
      "Ġcask": 1396,
      "Ġcott": 1397,
      "Ġcertain": 1398,
      "Ġfly": 1399,
      "Ġmount": 1400,
      "Ġlock": 1401,
      "iss": 1402,
      "leen": 1403,
      "arleen": 1404,
      "Ġbeing": 1405,
      "Ġsaus": 1406,
      "Ġsoft": 1407,
      "Ġring": 1408,
      "enty": 1409,
      "Ġangry": 1410,
      "Ġbro": 1411,
      "Ġbroke": 1412,
      "ĠSult": 1413,
      "Ġtherefore": 1414,
      "Ġspoke": 1415,
      "Ġprop": 1416,
      "Ġjour": 1417,
      "used": 1418,
      "Ġrolled": 1419,
      "Ġknife": 1420,
      "Ġbegged": 1421,
      "ope": 1422,
      "aking": 1423,
      "Ġcarter": 1424,
      "ĠRol": 1425,
      "ĠMarleen": 1426,
      "ĠLet": 1427,
      "Ġsaying": 1428,
      "Ġhole": 1429,
      "Ġapples": 1430,
      "Ġbrothers": 1431,
      "Ġriver": 1432,
      "Ġfaith": 1433,
      "Ġordered": 1434,
      "Ġlegs": 1435,
      "Ġpleased": 1436,
      "ĠHowever": 1437,
      "Ġelse": 1438,
      "Ġcompan": 1439,
      "Ġsweet": 1440,
      "Ġchamber": 1441,
      "Ġcottage": 1442,
      "ĠSultan": 1443,
      "ĠRoland": 1444,
      "ER": 1445,
      "iet": 1446,
      "men": 1447,
      "pr": 1448,
      "Ġill": 1449,
      "Ġtou": 1450,
      "Ġter": 1451,
      "Ġsang": 1452,
      "Ġsorrow": 1453,
      "Ġsix": 1454,
      "Ġhid": 1455,
      "rel": 1456,
      "Ġbones": 1457,
      "Ġfart": 1458,
      "Ġtown": 1459,
      "Ġmid": 1460,
      "Ġmil": 1461,
      "ation": 1462,
      "Ġdir": 1463,
      "Ġlif": 1464,
      "Ġlam": 1465,
      "Ġthie": 1466,
      "Ġpart": 1467,
      "Ġpath": 1468,
      "Ġpresent": 1469,
      "Ġsack": 1470,
      "Ġsaved": 1471,
      "illed": 1472,
      "stairs": 1473,
      "ĠIf": 1474,
      "Ġstream": 1475,
      "Ġtal": 1476,
      "pper": 1477,
      "als": 1478,
      "Ġroast": 1479,
      "Ġpear": 1480,
      "Ġpeace": 1481,
      "ĠCurd": 1482,
      "ause": 1483,
      "aker": 1484,
      "Ġhorses": 1485,
      "Ġvain": 1486,
      "Ġstrange": 1487,
      "Ġwants": 1488,
      "Ġthinking": 1489,
      "Ġpieces": 1490,
      "Ġfollow": 1491,
      "Ġslipped": 1492,
      "Ġsadly": 1493,
      "Ġquickly": 1494,
      "Ġgrieved": 1495,
      "Ġrobbers": 1496,
      "Ġjourney": 1497,
      "Ġfaithful": 1498,
      "Ġfarther": 1499,
      "Ġlifted": 1500,
      "ĠCurdken": 1501,
      "IN": 1502,
      "Never": 1503,
      "There": 1504,
      "This": 1505,
      "aced": 1506,
      "cing": 1507,
      "eed": 1508,
      "eese": 1509,
      "ghed": 1510,
      "mb": 1511,
      "ms": 1512,
      "oor": 1513,
      "pen": 1514,
      "tom": 1515,
      "ĠYou": 1516,
      "Ġtast": 1517,
      "Ġtried": 1518,
      "Ġad": 1519,
      "iness": 1520,
      "Ġhur": 1521,
      "reed": 1522,
      "Ġcock": 1523,
      "Ġcup": 1524,
      "Ġcoun": 1525,
      "Ġfin": 1526,
      "Ġfow": 1527,
      "Ġmom": 1528,
      "Ġmurd": 1529,
      "erly": 1530,
      "Ġdie": 1531,
      "Ġdream": 1532,
      "Ġlau": 1533,
      "Ġthirst": 1534,
      "Ġgeese": 1535,
      "Ġpin": 1536,
      "Ġpower": 1537,
      "Ġpope": 1538,
      "Ġinn": 1539,
      "ont": 1540,
      "ĠTh": 1541,
      "Ġwhom": 1542,
      "ĠIls": 1543,
      "Ġes": 1544,
      "Ġeasy": 1545,
      "Ġstor": 1546,
      "Ġstuck": 1547,
      "cely": 1548,
      "ceived": 1549,
      "Ġkid": 1550,
      "Ġcap": 1551,
      "Ġcage": 1552,
      "Ġshook": 1553,
      "Ġmean": 1554,
      "antime": 1555,
      "ighted": 1556,
      "pping": 1557,
      "Ġagreed": 1558,
      "ounded": 1559,
      "Ġalive": 1560,
      "ĠGod": 1561,
      "Ġable": 1562,
      "Ġgrow": 1563,
      "Ġothers": 1564,
      "Ġbod": 1565,
      "Ġcomb": 1566,
      "ĠLina": 1567,
      "Ġspring": 1568,
      "Ġcons": 1569,
      "Ġdancing": 1570,
      "Ġbecome": 1571,
      "Ġart": 1572,
      "Ġpicked": 1573,
      "Ġbottom": 1574,
      "dden": 1575,
      "ogel": 1576,
      "undev": 1577,
      "Ġgiants": 1578,
      "Ġplease": 1579,
      "Ġwhether": 1580,
      "abill": 1581,
      "Ġcountryman": 1582,
      "Ġbargain": 1583,
      "Ġtears": 1584,
      "Ġhills": 1585,
      "Ġclever": 1586,
      "Ġacc": 1587,
      "Ġlisten": 1588,
      "Ġbeasts": 1589,
      "Ġcrying": 1590,
      "Ġskin": 1591,
      "Ġraven": 1592,
      "Ġslept": 1593,
      "Ġstretched": 1594,
      "Ġthieves": 1595,
      "Ġmoment": 1596,
      "ĠIlsabill": 1597,
      "undevogel": 1598,
      "And": 1599,
      "All": 1600,
      "EL": 1601,
      "Not": 1602,
      "With": 1603,
      "cl": 1604,
      "ray": 1605,
      "Ġought": 1606,
      "heart": 1607,
      "Ġwren": 1608,
      "Ġbow": 1609,
      "Ġbush": 1610,
      "Ġfree": 1611,
      "Ġmus": 1612,
      "lls": 1613,
      "Ġdri": 1614,
      "Ġdread": 1615,
      "Ġthous": 1616,
      "ance": 1617,
      "Ġpri": 1618,
      "Ġpars": 1619,
      "Ġnor": 1620,
      "Ġnice": 1621,
      "arter": 1622,
      "arcely": 1623,
      "Ġhazel": 1624,
      "Ġbeer": 1625,
      "Ġsal": 1626,
      "Ġsheep": 1627,
      "Ġrage": 1628,
      "Ġears": 1629,
      "Ġstop": 1630,
      "Ġcake": 1631,
      "adow": 1632,
      "ented": 1633,
      "Ġshort": 1634,
      "Ġupstairs": 1635,
      "riage": 1636,
      "Ġmeat": 1637,
      "Ġmeadow": 1638,
      "Ġdoing": 1639,
      "Ġdoves": 1640,
      "ĠAll": 1641,
      "ains": 1642,
      "indle": 1643,
      "Ġref": 1644,
      "Ġreally": 1645,
      "Ġchick": 1646,
      "Ġlips": 1647,
      "Ġspin": 1648,
      "Ġspindle": 1649,
      "Ġnew": 1650,
      "Ġalas": 1651,
      "Ġfront": 1652,
      "Ġdev": 1653,
      "Ġdays": 1654,
      "Ġtimes": 1655,
      "Ġdrop": 1656,
      "Ġdrag": 1657,
      "ĠSoon": 1658,
      "Ġplenty": 1659,
      "Ġclimb": 1660,
      "Ġfeather": 1661,
      "Ġstruck": 1662,
      "Ġenjoy": 1663,
      "Ġcost": 1664,
      "Ġmayor": 1665,
      "Ġsays": 1666,
      "Ġswall": 1667,
      "Ġrunning": 1668,
      "Ġglad": 1669,
      "Ġwaited": 1670,
      "Who": 1671,
      "Ġearly": 1672,
      "Ġhandsome": 1673,
      "Ġservants": 1674,
      "Ġwords": 1675,
      "Ġempt": 1676,
      "Ġemper": 1677,
      "Ġorder": 1678,
      "Ġlistened": 1679,
      "Ġneedle": 1680,
      "Ġcorner": 1681,
      "Ġbranches": 1682,
      "Ġremained": 1683,
      "Ġindeed": 1684,
      "Ġburning": 1685,
      "Ġcaught": 1686,
      "Ġsausage": 1687,
      "Ġdirty": 1688,
      "Ġcounsel": 1689,
      "Ġthousand": 1690,
      "Ġparson": 1691,
      "Ġemperor": 1692,
      "Do": 1693,
      "Go": 1694,
      "eath": 1695,
      "have": 1696,
      "ming": 1697,
      "morrow": 1698,
      "ost": 1699,
      "rot": 1700,
      "vent": 1701,
      "Ġapr": 1702,
      "Ġsor": 1703,
      "Ġharm": 1704,
      "Ġfu": 1705,
      "Ġton": 1706,
      "Ġtomorrow": 1707,
      "Ġmen": 1708,
      "Ġmon": 1709,
      "Ġmaking": 1710,
      "edd": 1711,
      "lling": 1712,
      "Ġdish": 1713,
      "Ġlad": 1714,
      "ash": 1715,
      "Ġthick": 1716,
      "Ġthose": 1717,
      "Ġpaid": 1718,
      "Ġpushed": 1719,
      "Ġinside": 1720,
      "Ġhay": 1721,
      "vered": 1722,
      "oop": 1723,
      "Ġune": 1724,
      "Ġrid": 1725,
      "imp": 1726,
      "Ġstom": 1727,
      "Ġsteak": 1728,
      "Ġstopped": 1729,
      "Ġfortune": 1730,
      "Ġwear": 1731,
      "Ġshow": 1732,
      "rily": 1733,
      "Ġwilling": 1734,
      "Ġwillow": 1735,
      "Ġgoat": 1736,
      "ĠHoll": 1737,
      "ellow": 1738,
      "Ġliked": 1739,
      "Ġlives": 1740,
      "ept": 1741,
      "Ġpro": 1742,
      "aves": 1743,
      "Ġjug": 1744,
      "Ġquiet": 1745,
      "Ġsomeone": 1746,
      "Ġdrank": 1747,
      "Ġbegin": 1748,
      "Ġsuff": 1749,
      "Ġsudden": 1750,
      "Ġplaced": 1751,
      "ape": 1752,
      "Ġeating": 1753,
      "Ġboar": 1754,
      "Ġlikewise": 1755,
      "Ġwonder": 1756,
      "ĠMother": 1757,
      "Ġcoat": 1758,
      "Ġwoodman": 1759,
      "ĠFor": 1760,
      "ĠFundevogel": 1761,
      "Ġscr": 1762,
      "Ġswim": 1763,
      "ipe": 1764,
      "Ġbecause": 1765,
      "Ġmoon": 1766,
      "Ġgardener": 1767,
      "Ġsisters": 1768,
      "Ġwheel": 1769,
      "Ġbarrel": 1770,
      "Ġacro": 1771,
      "Ġbelow": 1772,
      "Ġbreak": 1773,
      "ĠJorinda": 1774,
      "ĠJorindel": 1775,
      "Ġnuts": 1776,
      "Ġhuntsman": 1777,
      "Thou": 1778,
      "Ġforgot": 1779,
      "Ġbeneath": 1780,
      "Ġbroken": 1781,
      "Ġmilk": 1782,
      "Ġlaughed": 1783,
      "Ġbody": 1784,
      "Ġchicken": 1785,
      "Ġswallowed": 1786,
      "Ġapron": 1787,
      "Ġstomach": 1788,
      "ĠHolle": 1789,
      "Ġacross": 1790,
      "Come": 1791,
      "Just": 1792,
      "Pray": 1793,
      "Then": 1794,
      "Take": 1795,
      "Wife": 1796,
      "cy": 1797,
      "come": 1798,
      "ee": 1799,
      "fied": 1800,
      "maker": 1801,
      "room": 1802,
      "ĠU": 1803,
      "Ġsqu": 1804,
      "Ġwar": 1805,
      "Ġwon": 1806,
      "Ġhig": 1807,
      "Ġbad": 1808,
      "Ġbri": 1809,
      "Ġbus": 1810,
      "ited": 1811,
      "Ġfur": 1812,
      "Ġfiddle": 1813,
      "Ġtore": 1814,
      "Ġmist": 1815,
      "Ġmag": 1816,
      "ery": 1817,
      "athe": 1818,
      "Ġdry": 1819,
      "Ġdist": 1820,
      "Ġlaz": 1821,
      "isfied": 1822,
      "Ġthither": 1823,
      "Ġpre": 1824,
      "Ġpur": 1825,
      "Ġpair": 1826,
      "oth": 1827,
      "Ġyellow": 1828,
      "illy": 1829,
      "illow": 1830,
      "Ġste": 1831,
      "Ġstre": 1832,
      "Ġstable": 1833,
      "cend": 1834,
      "Ġkept": 1835,
      "Ġwithin": 1836,
      "Ġshore": 1837,
      "Ġshake": 1838,
      "Ġbutter": 1839,
      "Ġatt": 1840,
      "Ġgod": 1841,
      "Ġsell": 1842,
      "Ġrej": 1843,
      "Ġchain": 1844,
      "Ġchang": 1845,
      "Ġspo": 1846,
      "Ġspot": 1847,
      "Ġnobody": 1848,
      "Ġwhose": 1849,
      "ĠWhere": 1850,
      "Ġjud": 1851,
      "Ġdeal": 1852,
      "Ġworked": 1853,
      "Ġseeing": 1854,
      "Ġtwice": 1855,
      "Ġgrant": 1856,
      "Ġgrave": 1857,
      "amp": 1858,
      "Ġpluck": 1859,
      "bles": 1860,
      "Ġthrown": 1861,
      "Ġsatisfied": 1862,
      "Ġflow": 1863,
      "Ġflock": 1864,
      "Ġfloor": 1865,
      "ĠMe": 1866,
      "Ġdaughters": 1867,
      "Ġbetrot": 1868,
      "Ġpeasants": 1869,
      "Ġmiss": 1870,
      "resh": 1871,
      "Ġarms": 1872,
      "Ġsleeping": 1873,
      "Ġcro": 1874,
      "idden": 1875,
      "Ġfallen": 1876,
      "Ġlucky": 1877,
      "Ġbuy": 1878,
      "Ġdeser": 1879,
      "Ġshoemaker": 1880,
      "Ġdressed": 1881,
      "Ġpulled": 1882,
      "erer": 1883,
      "Ġhaste": 1884,
      "Ġpromised": 1885,
      "Ġcertainly": 1886,
      "Ġtouched": 1887,
      "Ġpearls": 1888,
      "Ġthirsty": 1889,
      "Ġesc": 1890,
      "Ġmusic": 1891,
      "Ġclimbed": 1892,
      "Ġchanged": 1893,
      "Ġbetrothed": 1894,
      "AR": 1895,
      "Dear": 1896,
      "EN": 1897,
      "He": 1898,
      "To": 1899,
      "TLE": 1900,
      "cted": 1901,
      "day": 1902,
      "gue": 1903,
      "ige": 1904,
      "ler": 1905,
      "med": 1906,
      "most": 1907,
      "ond": 1908,
      "oic": 1909,
      "sh": 1910,
      "we": 1911,
      "wh": 1912,
      "wed": 1913,
      "wood": 1914,
      "ĠQ": 1915,
      "ĠĠ": 1916,
      "Ġve": 1917,
      "Ġwr": 1918,
      "Ġwand": 1919,
      "Ġwings": 1920,
      "Ġwounded": 1921,
      "Ġwedd": 1922,
      "Ġbit": 1923,
      "Ġbought": 1924,
      "Ġfal": 1925,
      "Ġfilled": 1926,
      "atched": 1927,
      "Ġlake": 1928,
      "Ġlord": 1929,
      "asc": 1930,
      "Ġgu": 1931,
      "idle": 1932,
      "Ġpain": 1933,
      "Ġpity": 1934,
      "Ġpillow": 1935,
      "Ġpige": 1936,
      "lever": 1937,
      "Ġinv": 1938,
      "Ġyard": 1939,
      "Ġherd": 1940,
      "Ġitself": 1941,
      "Ġwhist": 1942,
      "Ġride": 1943,
      "Ġstairs": 1944,
      "ets": 1945,
      "Ġkerchief": 1946,
      "Ġshar": 1947,
      "Ġbutt": 1948,
      "Ġmeal": 1949,
      "Ġanim": 1950,
      "Ġtale": 1951,
      "Ġrep": 1952,
      "iled": 1953,
      "urch": 1954,
      "Ġnest": 1955,
      "Ġprison": 1956,
      "Ġleather": 1957,
      "Ġrope": 1958,
      "Ġlooks": 1959,
      "Ġdraught": 1960,
      "Ġpecked": 1961,
      "Ġsupp": 1962,
      "ĠClever": 1963,
      "aps": 1964,
      "Ġtakes": 1965,
      "Ġheads": 1966,
      "Ġwatched": 1967,
      "Ġbox": 1968,
      "nderne": 1969,
      "Ġcarriage": 1970,
      "Ġflame": 1971,
      "Ġused": 1972,
      "Ġcomfor": 1973,
      "Ġcovered": 1974,
      "Ġhappen": 1975,
      "Ġbehave": 1976,
      "Ġscarcely": 1977,
      "tyard": 1978,
      "ended": 1979,
      "Ġhung": 1980,
      "Ġhunger": 1981,
      "Ġmove": 1982,
      "Ġhearing": 1983,
      "Ġcourtyard": 1984,
      "Ġperched": 1985,
      "Ġwheels": 1986,
      "Ġfetched": 1987,
      "Ġfaire": 1988,
      "Ġbuilt": 1989,
      "Ġbelie": 1990,
      "Ġslipper": 1991,
      "Ġplayed": 1992,
      "ĠOnce": 1993,
      "Ġhanging": 1994,
      "Ġadv": 1995,
      "Ġfowls": 1996,
      "Ġkids": 1997,
      "Ġcakes": 1998,
      "Ġfeathers": 1999,
      "Ġempty": 2000,
      "Ġuneasy": 2001,
      "Ġswimming": 2002,
      "ĠUnderne": 2003,
      "Ġbright": 2004,
      "Ġlazy": 2005,
      "erers": 2006,
      "Ġwedding": 2007,
      "Ġfalse": 2008,
      "ĠUnderneath": 2009,
      "Br": 2010,
      "IT": 2011,
      "OW": 2012,
      "Open": 2013,
      "Your": 2014,
      "aked": 2015,
      "azed": 2016,
      "bly": 2017,
      "cher": 2018,
      "em": 2019,
      "ead": 2020,
      "eks": 2021,
      "gg": 2022,
      "gu": 2023,
      "gar": 2024,
      "groom": 2025,
      "haps": 2026,
      "ian": 2027,
      "ired": 2028,
      "kerchief": 2029,
      "low": 2030,
      "lig": 2031,
      "mon": 2032,
      "oat": 2033,
      "tled": 2034,
      "use": 2035,
      "ual": 2036,
      "vil": 2037,
      "zes": 2038,
      "Ġtri": 2039,
      "Ġtun": 2040,
      "Ġsight": 2041,
      "Ġsilly": 2042,
      "Ġwide": 2043,
      "Ġwarm": 2044,
      "Ġwaves": 2045,
      "ins": 2046,
      "ined": 2047,
      "Ġbitt": 2048,
      "Ġborn": 2049,
      "Ġbank": 2050,
      "oured": 2051,
      "Ġheap": 2052,
      "Ġcase": 2053,
      "Ġcity": 2054,
      "Ġfam": 2055,
      "Ġmice": 2056,
      "ering": 2057,
      "atch": 2058,
      "Ġdare": 2059,
      "ason": 2060,
      "Ġthre": 2061,
      "Ġthorn": 2062,
      "Ġgathe": 2063,
      "Ġpan": 2064,
      "Ġpant": 2065,
      "Ġpale": 2066,
      "arly": 2067,
      "Ġins": 2068,
      "Ġinst": 2069,
      "Ġbean": 2070,
      "Ġyes": 2071,
      "stone": 2072,
      "Ġris": 2073,
      "Ġrate": 2074,
      "Ġramp": 2075,
      "Ġrasc": 2076,
      "Ġegg": 2077,
      "Ġevil": 2078,
      "Ġstir": 2079,
      "Ġstren": 2080,
      "Ġstoop": 2081,
      "ently": 2082,
      "Ġshowed": 2083,
      "Ġgoes": 2084,
      "Ġsear": 2085,
      "Ġbrook": 2086,
      "Ġreme": 2087,
      "Ġreal": 2088,
      "Ġrequ": 2089,
      "Ġreward": 2090,
      "Ġreceived": 2091,
      "Ġreason": 2092,
      "Ġchair": 2093,
      "Ġchurch": 2094,
      "Ġspit": 2095,
      "Ġspread": 2096,
      "ĠWith": 2097,
      "Ġgrey": 2098,
      "ĠBe": 2099,
      "ĠBy": 2100,
      "Ġquarter": 2101,
      "Ġalmost": 2102,
      "Ġmanag": 2103,
      "Ġleap": 2104,
      "Ġdrown": 2105,
      "Ġdropped": 2106,
      "ĠGood": 2107,
      "Ġplate": 2108,
      "Ġfond": 2109,
      "Ġhandkerchief": 2110,
      "Ġbeauty": 2111,
      "Ġlose": 2112,
      "Ġpoison": 2113,
      "ueen": 2114,
      "Ġflies": 2115,
      "Ġusual": 2116,
      "Ġeveryone": 2117,
      "Ġbeds": 2118,
      "Ġcoach": 2119,
      "Ġknows": 2120,
      "Ġknowing": 2121,
      "Ġturnip": 2122,
      "Ġscold": 2123,
      "Ġcatch": 2124,
      "Ġmisfor": 2125,
      "Ġhungry": 2126,
      "Ġbridegroom": 2127,
      "Ġarri": 2128,
      "Ġglitt": 2129,
      "ĠEvery": 2130,
      "ĠPresent": 2131,
      "Ġknees": 2132,
      "Ġourselves": 2133,
      "Whither": 2134,
      "Ġfairies": 2135,
      "Ġchest": 2136,
      "Ġbigger": 2137,
      "ĠKing": 2138,
      "Ġsits": 2139,
      "Ġdishes": 2140,
      "Ġhardly": 2141,
      "Ġcreat": 2142,
      "Ġclear": 2143,
      "Ġstayed": 2144,
      "upon": 2145,
      "Ġreturned": 2146,
      "Ġtravelled": 2147,
      "Ġheavens": 2148,
      "Ġdelighted": 2149,
      "Ġscreamed": 2150,
      "Ġoblig": 2151,
      "Ġmountains": 2152,
      "Ġlocks": 2153,
      "Ġcompanion": 2154,
      "Ġsweetheart": 2155,
      "Ġterri": 2156,
      "mbled": 2157,
      "Ġfinished": 2158,
      "Ġmurderers": 2159,
      "Ġsorry": 2160,
      "Ġtongue": 2161,
      "Ġquietly": 2162,
      "Ġsuffer": 2163,
      "Ġhigher": 2164,
      "Ġstreet": 2165,
      "Ġrejoic": 2166,
      "Ġjudge": 2167,
      "Ġflowers": 2168,
      "Ġmusician": 2169,
      "ĠQueen": 2170,
      "Ġwhistled": 2171,
      "Ġbuttons": 2172,
      "Ġprisoner": 2173,
      "Ġflames": 2174,
      "Ġcomforted": 2175,
      "Ġfairest": 2176,
      "Ġtune": 2177,
      "Ġgathered": 2178,
      "Ġrampion": 2179,
      "Ġstrength": 2180,
      "ĠPresently": 2181,
      "Ġobliged": 2182,
      "As": 2183,
      "ED": 2184,
      "Husband": 2185,
      "Here": 2186,
      "Is": 2187,
      "Let": 2188,
      "Ne": 2189,
      "RI": 2190,
      "Sh": 2191,
      "St": 2192,
      "TI": 2193,
      "Very": 2194,
      "af": 2195,
      "che": 2196,
      "cret": 2197,
      "even": 2198,
      "go": 2199,
      "ging": 2200,
      "ges": 2201,
      "iers": 2202,
      "li": 2203,
      "light": 2204,
      "lour": 2205,
      "ny": 2206,
      "night": 2207,
      "oc": 2208,
      "oked": 2209,
      "rist": 2210,
      "sy": 2211,
      "ten": 2212,
      "where": 2213,
      "ween": 2214,
      "Ġidle": 2215,
      "Ġsought": 2216,
      "Ġsimp": 2217,
      "ining": 2218,
      "âĢĿ": 2219,
      "Ġhar": 2220,
      "Ġhorn": 2221,
      "Ġhath": 2222,
      "Ġhidden": 2223,
      "Ġbat": 2224,
      "Ġbound": 2225,
      "Ġbree": 2226,
      "Ġbac": 2227,
      "oub": 2228,
      "Ġoven": 2229,
      "Ġcord": 2230,
      "Ġcool": 2231,
      "its": 2232,
      "Ġfif": 2233,
      "Ġmad": 2234,
      "Ġden": 2235,
      "Ġdar": 2236,
      "Ġdain": 2237,
      "Ġdang": 2238,
      "Ġlocked": 2239,
      "ĠâĢľ": 2240,
      "Ġgall": 2241,
      "Ġgift": 2242,
      "ense": 2243,
      "aned": 2244,
      "oring": 2245,
      "ides": 2246,
      "Ġpay": 2247,
      "lend": 2248,
      "arken": 2249,
      "Ġbew": 2250,
      "Ġyouth": 2251,
      "Ġones": 2252,
      "sty": 2253,
      "ster": 2254,
      "Ġrue": 2255,
      "Ġripe": 2256,
      "Ġeight": 2257,
      "Ġstock": 2258,
      "Ġstud": 2259,
      "Ġform": 2260,
      "Ġforward": 2261,
      "Ġkiss": 2262,
      "Ġshade": 2263,
      "Ġbutcher": 2264,
      "rious": 2265,
      "Ġmeantime": 2266,
      "Ġdove": 2267,
      "ĠAway": 2268,
      "Ġang": 2269,
      "Ġsecret": 2270,
      "ored": 2271,
      "ĠHis": 2272,
      "Ġbrid": 2273,
      "Ġbroth": 2274,
      "Ġtaking": 2275,
      "Ġres": 2276,
      "Ġreach": 2277,
      "Ġcharm": 2278,
      "iling": 2279,
      "ilst": 2280,
      "ung": 2281,
      "unk": 2282,
      "though": 2283,
      "Ġspir": 2284,
      "Ġneigh": 2285,
      "alth": 2286,
      "ĠWill": 2287,
      "Ġjam": 2288,
      "Ġdeare": 2289,
      "Ġwhatever": 2290,
      "Ġworse": 2291,
      "Ġoffered": 2292,
      "Ġhomewards": 2293,
      "Ġabove": 2294,
      "Ġpeb": 2295,
      "Ġpeep": 2296,
      "Ġgrown": 2297,
      "Ġgrass": 2298,
      "Ġsum": 2299,
      "Ġshoulder": 2300,
      "Ġovert": 2301,
      "Ġclack": 2302,
      "ign": 2303,
      "igned": 2304,
      "Ġthrust": 2305,
      "Ġthroat": 2306,
      "Ġboat": 2307,
      "Ġboon": 2308,
      "Ġbeautifully": 2309,
      "Ġhorsemen": 2310,
      "Ġvent": 2311,
      "Ġanswer": 2312,
      "ĠMr": 2313,
      "ĠHearken": 2314,
      "Ġhappily": 2315,
      "aws": 2316,
      "Ġforester": 2317,
      "Ġmillstone": 2318,
      "Ġsprink": 2319,
      "ously": 2320,
      "Ġbetween": 2321,
      "Ġwisdom": 2322,
      "Ġserved": 2323,
      "Ġpassing": 2324,
      "ĠEarly": 2325,
      "Ġunk": 2326,
      "Ġmerrily": 2327,
      "Ġmercy": 2328,
      "Ġawak": 2329,
      "Ġyear": 2330,
      "Ġearth": 2331,
      "Ġservice": 2332,
      "ĠJust": 2333,
      "Ġlarger": 2334,
      "Ġperhaps": 2335,
      "ably": 2336,
      "Ġcarrying": 2337,
      "Ġsnoring": 2338,
      "Ġdisco": 2339,
      "angest": 2340,
      "Ġgrinder": 2341,
      "Ġpigsty": 2342,
      "ffin": 2343,
      "pected": 2344,
      "Ġguests": 2345,
      "Ġtravelling": 2346,
      "Ġwalls": 2347,
      "ĠWho": 2348,
      "ĠWhile": 2349,
      "Ġhatche": 2350,
      "Ġbranch": 2351,
      "Ġburnt": 2352,
      "Ġpromise": 2353,
      "Ġhuntsmen": 2354,
      "Behave": 2355,
      "Ġprayed": 2356,
      "Ġscreaming": 2357,
      "Ġsoftly": 2358,
      "Ġproperly": 2359,
      "Ġcompany": 2360,
      "Ġterr": 2361,
      "Ġmidst": 2362,
      "Ġlament": 2363,
      "Ġstorm": 2364,
      "Ġconsented": 2365,
      "Ġrefused": 2366,
      "Ġmonth": 2367,
      "Ġthicket": 2368,
      "Ġgodmother": 2369,
      "Ġplucked": 2370,
      "ĠMeantime": 2371,
      "onds": 2372,
      "Ġsharp": 2373,
      "Ġanimals": 2374,
      "Ġadvice": 2375,
      "Ġthorns": 2376,
      "Ġinstead": 2377,
      "ĠGoodbye": 2378,
      "Ġpoisoned": 2379,
      "Ġscolded": 2380,
      "Ġarrived": 2381,
      "Ġharness": 2382,
      "Ġbreezes": 2383,
      "Ġbacon": 2384,
      "Ġfifth": 2385,
      "Ġstudent": 2386,
      "Ġhatchet": 2387,
      "!âĢĶ": 2388,
      "Bless": 2389,
      "Can": 2390,
      "ES": 2391,
      "Han": 2392,
      "IS": 2393,
      "See": 2394,
      "Tell": 2395,
      "US": 2396,
      "aven": 2397,
      "apped": 2398,
      "bre": 2399,
      "bes": 2400,
      "bour": 2401,
      "cer": 2402,
      "gly": 2403,
      "ible": 2404,
      "ment": 2405,
      "mand": 2406,
      "noun": 2407,
      "ole": 2408,
      "pered": 2409,
      "rince": 2410,
      "ued": 2411,
      "uel": 2412,
      "Ġ(": 2413,
      "ĠYour": 2414,
      "Ġast": 2415,
      "Ġsus": 2416,
      "Ġsince": 2417,
      "int": 2418,
      "Ġhit": 2419,
      "Ġhone": 2420,
      "Ġhither": 2421,
      "Ġhoney": 2422,
      "Ġble": 2423,
      "Ġbir": 2424,
      "oul": 2425,
      "Ġodd": 2426,
      "Ġce": 2427,
      "Ġcu": 2428,
      "Ġcrow": 2429,
      "Ġfate": 2430,
      "Ġfix": 2431,
      "Ġfresh": 2432,
      "Ġtoday": 2433,
      "Ġmile": 2434,
      "Ġdared": 2435,
      "Ġdale": 2436,
      "ingly": 2437,
      "asily": 2438,
      "isit": 2439,
      "Ġgazed": 2440,
      "enced": 2441,
      "Ġpen": 2442,
      "Ġpar": 2443,
      "Ġpaws": 2444,
      "ows": 2445,
      "Ġnone": 2446,
      "Ġnail": 2447,
      "Ġint": 2448,
      "ony": 2449,
      "Ġbef": 2450,
      "Ġbeside": 2451,
      "Ġsave": 2452,
      "Ġsake": 2453,
      "ĠTO": 2454,
      "Ġund": 2455,
      "Ġugly": 2456,
      "stand": 2457,
      "Ġaside": 2458,
      "irt": 2459,
      "Ġwhis": 2460,
      "Ġwhir": 2461,
      "imney": 2462,
      "cks": 2463,
      "Ġease": 2464,
      "Ġeasily": 2465,
      "Ġstri": 2466,
      "Ġstart": 2467,
      "Ġstrew": 2468,
      "Ġstole": 2469,
      "eth": 2470,
      "Ġweak": 2471,
      "adly": 2472,
      "ific": 2473,
      "ified": 2474,
      "Ġshop": 2475,
      "Ġshab": 2476,
      "Ġshining": 2477,
      "Ġallowed": 2478,
      "oodle": 2479,
      "riar": 2480,
      "rive": 2481,
      "ries": 2482,
      "ĠAn": 2483,
      "Ġannoun": 2484,
      "lfilled": 2485,
      "Ġsevent": 2486,
      "Ġwhenever": 2487,
      "ĠSadly": 2488,
      "Ġread": 2489,
      "Ġreigned": 2490,
      "Ġchange": 2491,
      "Ġchoked": 2492,
      "Ġchimney": 2493,
      "ards": 2494,
      "urtle": 2495,
      "Ġspun": 2496,
      "Ġsplend": 2497,
      "Ġneare": 2498,
      "Ġnoon": 2499,
      "Ġnose": 2500,
      "Ġgreed": 2501,
      "Ġje": 2502,
      "Ġjo": 2503,
      "Ġjoke": 2504,
      "Ġjog": 2505,
      "ssed": 2506,
      "ĠBriar": 2507,
      "Ġtied": 2508,
      "Ġalighted": 2509,
      "Ġalthough": 2510,
      "Ġrogu": 2511,
      "Ġdaybre": 2512,
      "iest": 2513,
      "Ġknock": 2514,
      "ĠGold": 2515,
      "Ġtwig": 2516,
      "oped": 2517,
      "Ġgreatest": 2518,
      "Ġplant": 2519,
      "Ġotherwise": 2520,
      "Ġtrough": 2521,
      "Ġthrone": 2522,
      "Ġgetting": 2523,
      "Ġnowhere": 2524,
      "icorn": 2525,
      "Ġwond": 2526,
      "Ġvisit": 2527,
      "ĠRose": 2528,
      "Ġsettled": 2529,
      "Ġstroke": 2530,
      "Ġcomr": 2531,
      "Ġcoll": 2532,
      "Ġcold": 2533,
      "Ġcoal": 2534,
      "aughter": 2535,
      "ĠLIT": 2536,
      "ages": 2537,
      "ague": 2538,
      "ately": 2539,
      "Ġheartily": 2540,
      "Ġshoot": 2541,
      "Ġcows": 2542,
      "Ġcooked": 2543,
      "Ġfaster": 2544,
      "Ġfinding": 2545,
      "Ġwishing": 2546,
      "Ġhunting": 2547,
      "Ġaround": 2548,
      "Ġtelling": 2549,
      "Ġcarefully": 2550,
      "Ġcruel": 2551,
      "Ġunicorn": 2552,
      "Ġdogs": 2553,
      "dded": 2554,
      "ddle": 2555,
      "Ġawake": 2556,
      "Ġdearly": 2557,
      "Ġearn": 2558,
      "Ġhearth": 2559,
      "Ġkey": 2560,
      "Ġperfor": 2561,
      "Ġcloth": 2562,
      "Ġkindly": 2563,
      "Ġseems": 2564,
      "Ġteeth": 2565,
      "Ġsoldiers": 2566,
      "Ġsurely": 2567,
      "Ġdescend": 2568,
      "Ġnames": 2569,
      "Ġlovel": 2570,
      "Ġwalking": 2571,
      "Ġentered": 2572,
      "Ġafar": 2573,
      "Ġpleasant": 2574,
      "otten": 2575,
      "Ġsteps": 2576,
      "Ġweeping": 2577,
      "Ġgrief": 2578,
      "acious": 2579,
      "Ġslee": 2580,
      "Ġindust": 2581,
      "Ġbury": 2582,
      "Ġburst": 2583,
      "Ġloudly": 2584,
      "Ġcontin": 2585,
      "ĠDame": 2586,
      "Ġfields": 2587,
      "Ġforgotten": 2588,
      "Ġgreenwood": 2589,
      "Ġflying": 2590,
      "Ġhiding": 2591,
      "Ġmidnight": 2592,
      "Ġpresents": 2593,
      "Ġfollowing": 2594,
      "Ġtaste": 2595,
      "Ġtasted": 2596,
      "Ġhurt": 2597,
      "ĠThus": 2598,
      "Ġstory": 2599,
      "Ġmeaning": 2600,
      "clock": 2601,
      "Ġbowl": 2602,
      "Ġdriving": 2603,
      "Ġsalad": 2604,
      "Ġdevour": 2605,
      "Ġdevoured": 2606,
      "Ġfulfilled": 2607,
      "Ġprov": 2608,
      "Ġsuddenly": 2609,
      "Ġscratched": 2610,
      "Ġchickens": 2611,
      "Ġfurther": 2612,
      "Ġmagic": 2613,
      "Ġmissing": 2614,
      "Ġescape": 2615,
      "Ġpigeon": 2616,
      "Ġinvited": 2617,
      "Ġbelieved": 2618,
      "Ġbitterly": 2619,
      "Ġstooped": 2620,
      "ĠBefore": 2621,
      "Ġquarters": 2622,
      "Ġmanaged": 2623,
      "Ġleapt": 2624,
      "Ġdrowned": 2625,
      "Ġmisfortune": 2626,
      "Ġcreature": 2627,
      "Ġterribly": 2628,
      "Shake": 2629,
      "Ġdarling": 2630,
      "Ġdainty": 2631,
      "Ġbridge": 2632,
      "Ġneighbour": 2633,
      "Ġdearest": 2634,
      "Ġpebbles": 2635,
      "Ġpeeped": 2636,
      "Ġsprinkled": 2637,
      "Ġterrified": 2638,
      "Ġaston": 2639,
      "Ġhonest": 2640,
      "Ġshabby": 2641,
      "Ġannounced": 2642,
      "Ġseventh": 2643,
      "Ġnearer": 2644,
      "Ġjogged": 2645,
      "Ġdaybreak": 2646,
      "ĠLITTLE": 2647,
      ">?âĢĻ": 2648,
      "Bird": 2649,
      "Frederick": 2650,
      "Hark": 2651,
      "HAN": 2652,
      "In": 2653,
      "Kate": 2654,
      "LT": 2655,
      "Little": 2656,
      "Look": 2657,
      "Mother": 2658,
      "Nay": 2659,
      "OL": 2660,
      "OO": 2661,
      "Rapunzel": 2662,
      "She": 2663,
      "Some": 2664,
      "UM": 2665,
      "UN": 2666,
      "Will": 2667,
      "When": 2668,
      "app": 2669,
      "bl": 2670,
      "bs": 2671,
      "bony": 2672,
      "cle": 2673,
      "dge": 2674,
      "daughter": 2675,
      "ek": 2676,
      "eared": 2677,
      "hood": 2678,
      "iam": 2679,
      "luck": 2680,
      "lted": 2681,
      "mith": 2682,
      "mber": 2683,
      "nown": 2684,
      "nific": 2685,
      "ping": 2686,
      "ple": 2687,
      "rn": 2688,
      "ru": 2689,
      "ring": 2690,
      "ser": 2691,
      "smith": 2692,
      "time": 2693,
      "uit": 2694,
      "vour": 2695,
      "wl": 2696,
      "wo": 2697,
      "will": 2698,
      "wels": 2699,
      "ze": 2700,
      "Ġed": 2701,
      "Ġir": 2702,
      "Ġsme": 2703,
      "Ġsir": 2704,
      "Ġsch": 2705,
      "Ġsul": 2706,
      "Ġsoul": 2707,
      "Ġwin": 2708,
      "Ġbid": 2709,
      "Ġbent": 2710,
      "Ġbade": 2711,
      "Ġbless": 2712,
      "Ġbaker": 2713,
      "Ġheels": 2714,
      "Ġhedge": 2715,
      "Ġopp": 2716,
      "Ġowl": 2717,
      "Ġcust": 2718,
      "ital": 2719,
      "ition": 2720,
      "Ġfill": 2721,
      "Ġfight": 2722,
      "Ġfarm": 2723,
      "Ġfive": 2724,
      "Ġtorn": 2725,
      "Ġmour": 2726,
      "lly": 2727,
      "ati": 2728,
      "âĢĻ:": 2729,
      "Ġdet": 2730,
      "Ġdire": 2731,
      "Ġdaw": 2732,
      "Ġdug": 2733,
      "Ġdoub": 2734,
      "Ġdiam": 2735,
      "Ġlid": 2736,
      "Ġlace": 2737,
      "Ġlate": 2738,
      "Ġlift": 2739,
      "ingale": 2740,
      "asure": 2741,
      "Ġgay": 2742,
      "Ġgent": 2743,
      "Ġgird": 2744,
      "Ġgame": 2745,
      "Ġgaz": 2746,
      "orbes": 2747,
      "Ġpit": 2748,
      "Ġpun": 2749,
      "Ġpull": 2750,
      "Ġpail": 2751,
      "Ġbees": 2752,
      "Ġsaddle": 2753,
      "Ġoften": 2754,
      "Ġhero": 2755,
      "Ġwash": 2756,
      "Ġwashing": 2757,
      "ĠTo": 2758,
      "Ġur": 2759,
      "Ġrather": 2760,
      "Ġrough": 2761,
      "Ġric": 2762,
      "Ġrag": 2763,
      "Ġebony": 2764,
      "Ġstick": 2765,
      "Ġstove": 2766,
      "Ġweather": 2767,
      "ceed": 2768,
      "Ġcaused": 2769,
      "Ġcages": 2770,
      "Ġshot": 2771,
      "Ġshone": 2772,
      "Ġshame": 2773,
      "Ġant": 2774,
      "Ġanx": 2775,
      "Ġants": 2776,
      "Ġseed": 2777,
      "Ġseat": 2778,
      "Ġsewed": 2779,
      "elier": 2780,
      "ĠHer": 2781,
      "ĠHOW": 2782,
      "Ġbrown": 2783,
      "Ġbraid": 2784,
      "Ġtall": 2785,
      "ĠSc": 2786,
      "ĠSt": 2787,
      "ĠSaid": 2788,
      "Ġchat": 2789,
      "Ġchand": 2790,
      "Ġchoose": 2791,
      "Ġchrist": 2792,
      "uring": 2793,
      "elling": 2794,
      "Ġliving": 2795,
      "Ġspite": 2796,
      "Ġspark": 2797,
      "Ġneither": 2798,
      "eping": 2799,
      "Ġago": 2800,
      "venge": 2801,
      "Ġalarm": 2802,
      "Ġfrock": 2803,
      "Ġdeer": 2804,
      "Ġdecl": 2805,
      "Ġlest": 2806,
      "Ġlead": 2807,
      "Ġleast": 2808,
      "Ġrob": 2809,
      "Ġroam": 2810,
      "Ġrosy": 2811,
      "Ġrocks": 2812,
      "Ġworn": 2813,
      "Ġworth": 2814,
      "acked": 2815,
      "Ġdaylight": 2816,
      "Ġknown": 2817,
      "Ġseek": 2818,
      "Ġgoodbye": 2819,
      "Ġgrain": 2820,
      "Ġsupper": 2821,
      "amb": 2822,
      "Ġshoulders": 2823,
      "Ġplan": 2824,
      "Ġplank": 2825,
      "osed": 2826,
      "Ġovercome": 2827,
      "Ġclick": 2828,
      "Ġclock": 2829,
      "Ġclum": 2830,
      "Ġclaw": 2831,
      "aped": 2832,
      "Ġtrust": 2833,
      "Ġtrunk": 2834,
      "ighed": 2835,
      "inegar": 2836,
      "Ġgoldsmith": 2837,
      "Ġthrush": 2838,
      "Ġfew": 2839,
      "Ġfeed": 2840,
      "Ġgets": 2841,
      "Ġbold": 2842,
      "Ġboiling": 2843,
      "Ġload": 2844,
      "Ġloss": 2845,
      "Ġloft": 2846,
      "Ġposs": 2847,
      "Ġlikely": 2848,
      "Ġhorseman": 2849,
      "Ġblind": 2850,
      "Ġval": 2851,
      "Ġvinegar": 2852,
      "Ġthank": 2853,
      "ĠMO": 2854,
      "Ġstrong": 2855,
      "Ġstrang": 2856,
      "Ġenv": 2857,
      "Ġeverywhere": 2858,
      "ĠHere": 2859,
      "Ġcompl": 2860,
      "Ġcond": 2861,
      "Ġcoals": 2862,
      "Ġhappiness": 2863,
      "Ġwoods": 2864,
      "Ġwooden": 2865,
      "awled": 2866,
      "ĠLife": 2867,
      "Ġnightingale": 2868,
      "Ġgirls": 2869,
      "Ġsciss": 2870,
      "Ġhopped": 2871,
      "Ġappro": 2872,
      "Ġwares": 2873,
      "Ġmischief": 2874,
      "Ġunderstand": 2875,
      "Ġconcer": 2876,
      "Ġsingle": 2877,
      "Ġwiser": 2878,
      "Ġserve": 2879,
      "Ġgloom": 2880,
      "Ġpassion": 2881,
      "ĠPAR": 2882,
      "ĠPrince": 2883,
      "Ġcrown": 2884,
      "Ġcrumb": 2885,
      "Ġunless": 2886,
      "Ġlighted": 2887,
      "Ġlightning": 2888,
      "ĠThereupon": 2889,
      "Ġleaves": 2890,
      "Ġcheeks": 2891,
      "Ġsmart": 2892,
      "Ġsilk": 2893,
      "Ġsilken": 2894,
      "Ġprett": 2895,
      "Ġstands": 2896,
      "Ġhelped": 2897,
      "Ġperceived": 2898,
      "Ġfishes": 2899,
      "Ġmarble": 2900,
      "ĠKorbes": 2901,
      "Ġfriends": 2902,
      "Ġfavour": 2903,
      "Ġkindness": 2904,
      "Ġkeeping": 2905,
      "Ġtear": 2906,
      "Ġtrembled": 2907,
      "Ġmiserable": 2908,
      "Ġducks": 2909,
      "Ġcloset": 2910,
      "Ġbelong": 2911,
      "Ġfingers": 2912,
      "pect": 2913,
      "Ġentire": 2914,
      "Ġwretched": 2915,
      "Ġsmaller": 2916,
      "they": 2917,
      "theless": 2918,
      "Ġsky": 2919,
      "Ġmouthful": 2920,
      "Ġpudd": 2921,
      "Ġstepmother": 2922,
      "Ġstepdaughter": 2923,
      "ĠWhilst": 2924,
      "Ġhastened": 2925,
      "Ġsafely": 2926,
      "Ġdeeper": 2927,
      "Ġwatching": 2928,
      "Ġdelight": 2929,
      "Ġcontrive": 2930,
      "ANS": 2931,
      "Ġexc": 2932,
      "ctly": 2933,
      "Ġobser": 2934,
      "Ġcurl": 2935,
      "Ġbroad": 2936,
      "Ġtouch": 2937,
      "Ġsorrowful": 2938,
      "Ġparted": 2939,
      "Ġpresently": 2940,
      "Ġtalk": 2941,
      "Ġtalers": 2942,
      "Ġhurry": 2943,
      "Ġinnoc": 2944,
      "Ġmeans": 2945,
      "Ġaccount": 2946,
      "Ġaccord": 2947,
      "Ġravens": 2948,
      "Ġwrens": 2949,
      "Ġpricked": 2950,
      "Ġsalt": 2951,
      "Ġdragged": 2952,
      "Ġthousands": 2953,
      "Ġmonster": 2954,
      "Ġweary": 2955,
      "Ġwillingly": 2956,
      "Ġbusiness": 2957,
      "Ġmistress": 2958,
      "Ġmagnific": 2959,
      "Ġdistance": 2960,
      "Ġpurse": 2961,
      "Ġstables": 2962,
      "Ġgranted": 2963,
      "Ġmissed": 2964,
      "Ġescaped": 2965,
      "ĠĠĠ": 2966,
      "Ġvex": 2967,
      "Ġwrong": 2968,
      "Ġwandered": 2969,
      "Ġsuppose": 2970,
      "Bride": 2971,
      "empt": 2972,
      "moned": 2973,
      "Ġtrick": 2974,
      "Ġthreat": 2975,
      "Ġrascal": 2976,
      "Ġremember": 2977,
      "Ġrequest": 2978,
      "Ġrejoiced": 2979,
      "Neither": 2980,
      "Ġbattle": 2981,
      "Ġdanger": 2982,
      "Ġbewail": 2983,
      "Ġrespect": 2984,
      "Ġsummoned": 2985,
      "Ġovertook": 2986,
      "Ġventure": 2987,
      "Ġunknown": 2988,
      "Ġdiscover": 2989,
      "Hansel": 2990,
      "Ġbirth": 2991,
      "Ġfixed": 2992,
      "Ġmiles": 2993,
      "Ġpenny": 2994,
      "Ġparlour": 2995,
      "Ġwhispered": 2996,
      "Ġwhirl": 2997,
      "Ġstrike": 2998,
      "Ġstarted": 2999,
      "Ġsplendid": 3000,
      "Ġjewels": 3001,
      "Ġjob": 3002,
      "Ġplanted": 3003,
      "Ġwondered": 3004,
      "Ġcollar": 3005,
      "Ġperform": 3006,
      "Ġlovelier": 3007,
      "Ġsleeve": 3008,
      "Ġastonished": 3009,
      "lucky": 3010,
      "Ġedge": 3011,
      "Ġiron": 3012,
      "Ġsulk": 3013,
      "Ġwinter": 3014,
      "Ġcustom": 3015,
      "Ġdoubt": 3016,
      "Ġdiamonds": 3017,
      "Ġgentle": 3018,
      "Ġgirdle": 3019,
      "Ġchandelier": 3020,
      "Ġscissor": 3021,
      "!âĢĿ": 3022,
      "AT": 3023,
      "AND": 3024,
      "Blow": 3025,
      "CK": 3026,
      "CLE": 3027,
      "Carter": 3028,
      "Don": 3029,
      "EE": 3030,
      "EM": 3031,
      "Fine": 3032,
      "Falada": 3033,
      "Get": 3034,
      "Gave": 3035,
      "Ha": 3036,
      "IP": 3037,
      "IR": 3038,
      "KIN": 3039,
      "List": 3040,
      "OG": 3041,
      "One": 3042,
      "RIN": 3043,
      "So": 3044,
      "Sto": 3045,
      "STI": 3046,
      "Seven": 3047,
      "SKIN": 3048,
      "Took": 3049,
      "Top": 3050,
      "Turn": 3051,
      "TEL": 3052,
      "Un": 3053,
      "VER": 3054,
      "aj": 3055,
      "ait": 3056,
      "aily": 3057,
      "ares": 3058,
      "aby": 3059,
      "apping": 3060,
      "br": 3061,
      "cc": 3062,
      "ci": 3063,
      "cious": 3064,
      "cause": 3065,
      "cceed": 3066,
      "do": 3067,
      "der": 3068,
      "eel": 3069,
      "emy": 3070,
      "father": 3071,
      "hold": 3072,
      "happ": 3073,
      "iol": 3074,
      "iately": 3075,
      "jur": 3076,
      "kin": 3077,
      "lord": 3078,
      "lks": 3079,
      "mpt": 3080,
      "miss": 3081,
      "mined": 3082,
      "no": 3083,
      "ners": 3084,
      "oved": 3085,
      "oons": 3086,
      "pic": 3087,
      "rom": 3088,
      "tly": 3089,
      "there": 3090,
      "tered": 3091,
      "take": 3092,
      "ured": 3093,
      "when": 3094,
      "with": 3095,
      "xen": 3096,
      "ythe": 3097,
      "ĠV": 3098,
      "Ġim": 3099,
      "Ġide": 3100,
      "ĠNo": 3101,
      "ĠNever": 3102,
      "ĠNot": 3103,
      "hel": 3104,
      "Ġten": 3105,
      "Ġturtle": 3106,
      "Ġaim": 3107,
      "Ġsly": 3108,
      "Ġsur": 3109,
      "Ġsick": 3110,
      "Ġsort": 3111,
      "Ġsense": 3112,
      "Ġsides": 3113,
      "Ġsign": 3114,
      "Ġwad": 3115,
      "Ġhon": 3116,
      "Ġhut": 3117,
      "Ġhind": 3118,
      "Ġhide": 3119,
      "Ġhangest": 3120,
      "Ġhoped": 3121,
      "rely": 3122,
      "Ġber": 3123,
      "Ġbind": 3124,
      "Ġbough": 3125,
      "Ġbake": 3126,
      "Ġbaby": 3127,
      "Ġheat": 3128,
      "Ġheir": 3129,
      "Ġhealth": 3130,
      "Ġocc": 3131,
      "Ġoxen": 3132,
      "Ġcou": 3133,
      "Ġcir": 3134,
      "Ġfan": 3135,
      "Ġfount": 3136,
      "Ġfier": 3137,
      "Ġfool": 3138,
      "Ġtoes": 3139,
      "Ġtossed": 3140,
      "Ġmine": 3141,
      "Ġmorrow": 3142,
      "Ġmaj": 3143,
      "edl": 3144,
      "erday": 3145,
      "ermined": 3146,
      "ates": 3147,
      "attered": 3148,
      "Ġdim": 3149,
      "Ġdep": 3150,
      "Ġdig": 3151,
      "Ġduring": 3152,
      "Ġlin": 3153,
      "Ġlap": 3154,
      "Ġlair": 3155,
      "Ġless": 3156,
      "Ġlump": 3157,
      "inger": 3158,
      "asses": 3159,
      "isk": 3160,
      "ision": 3161,
      "Ġthri": 3162,
      "Ġthread": 3163,
      "Ġthief": 3164,
      "Ġthresh": 3165,
      "Ġgn": 3166,
      "Ġgar": 3167,
      "Ġgif": 3168,
      "Ġgangest": 3169,
      "ening": 3170,
      "anced": 3171,
      "anwh": 3172,
      "orch": 3173,
      "Ġpard": 3174,
      "Ġpace": 3175,
      "Ġpier": 3176,
      "Ġpitch": 3177,
      "Ġpoodle": 3178,
      "Ġpedl": 3179,
      "Ġni": 3180,
      "Ġnast": 3181,
      "Ġnur": 3182,
      "Ġnigh": 3183,
      "Ġnimb": 3184,
      "aring": 3185,
      "Ġinqu": 3186,
      "Ġinjur": 3187,
      "ots": 3188,
      "Ġhack": 3189,
      "Ġbes": 3190,
      "Ġbeam": 3191,
      "Ġbells": 3192,
      "Ġbelly": 3193,
      "Ġsaving": 3194,
      "Ġyest": 3195,
      "uth": 3196,
      "utter": 3197,
      "Ġshell": 3198,
      "Ġshelf": 3199,
      "Ġwashed": 3200,
      "ĠTill": 3201,
      "ĠTree": 3202,
      "ĠTwo": 3203,
      "set": 3204,
      "sembled": 3205,
      "ools": 3206,
      "Ġascend": 3207,
      "Ġassembled": 3208,
      "Ġwhu": 3209,
      "veral": 3210,
      "Ġrow": 3211,
      "Ġrain": 3212,
      "Ġrap": 3213,
      "Ġrise": 3214,
      "Ġrushed": 3215,
      "ĠIN": 3216,
      "ĠIs": 3217,
      "Ġequ": 3218,
      "Ġeag": 3219,
      "Ġstars": 3220,
      "Ġstol": 3221,
      "Ġforce": 3222,
      "Ġforget": 3223,
      "Ġfortun": 3224,
      "ettle": 3225,
      "Ġweeks": 3226,
      "Ġwealth": 3227,
      "ceive": 3228,
      "Ġkicked": 3229,
      "Ġkettle": 3230,
      "chin": 3231,
      "Ġcalling": 3232,
      "Ġshout": 3233,
      "Ġshape": 3234,
      "Ġbutler": 3235,
      "omp": 3236,
      "Ġmeet": 3237,
      "itted": 3238,
      "esides": 3239,
      "ĠAre": 3240,
      "ĠApp": 3241,
      "ĠAlas": 3242,
      "Ġanger": 3243,
      "Ġsend": 3244,
      "Ġsees": 3245,
      "Ġseated": 3246,
      "Ġseash": 3247,
      "Ġseveral": 3248,
      "antly": 3249,
      "ĠHave": 3250,
      "ĠHANS": 3251,
      "Ġwhence": 3252,
      "Ġbrush": 3253,
      "Ġbrisk": 3254,
      "Ġtap": 3255,
      "ĠSund": 3256,
      "Ġrec": 3257,
      "Ġrel": 3258,
      "Ġrevenge": 3259,
      "ters": 3260,
      "Ġchairs": 3261,
      "ils": 3262,
      "allen": 3263,
      "urred": 3264,
      "Ġlies": 3265,
      "Ġliber": 3266,
      "ppers": 3267,
      "Ġspace": 3268,
      "Ġneat": 3269,
      "aloons": 3270,
      "Ġnoble": 3271,
      "Ġwhoever": 3272,
      "ĠWe": 3273,
      "ĠWell": 3274,
      "Ġproud": 3275,
      "Ġkings": 3276,
      "Ġgrease": 3277,
      "Ġjack": 3278,
      "ĠBlow": 3279,
      "Ġties": 3280,
      "ulted": 3281,
      "Ġwhip": 3282,
      "Ġaloud": 3283,
      "Ġmanner": 3284,
      "Ġfruit": 3285,
      "Ġdeed": 3286,
      "Ġlear": 3287,
      "Ġleague": 3288,
      "ĠGR": 3289,
      "Ġpeck": 3290,
      "Ġtwenty": 3291,
      "Ġgroom": 3292,
      "Ġgracious": 3293,
      "Ġsuit": 3294,
      "Ġsuited": 3295,
      "Ġsugar": 3296,
      "Ġsucceed": 3297,
      "amed": 3298,
      "Ġamid": 3299,
      "Ġgreater": 3300,
      "Ġgreatly": 3301,
      "Ġplump": 3302,
      "Ġplates": 3303,
      "Ġoverjoy": 3304,
      "ĠCLE": 3305,
      "ĠCHAN": 3306,
      "Ġclatter": 3307,
      "Ġclosed": 3308,
      "akes": 3309,
      "Ġdoors": 3310,
      "Ġhousehold": 3311,
      "Ġtrot": 3312,
      "Ġtrap": 3313,
      "Ġtrump": 3314,
      "Ġtroop": 3315,
      "Ġtruth": 3316,
      "Ġfoam": 3317,
      "Ġfolks": 3318,
      "Ġbeak": 3319,
      "Ġhandful": 3320,
      "Ġwherever": 3321,
      "Ġputs": 3322,
      "Ġboast": 3323,
      "Ġloaves": 3324,
      "Ġloaf": 3325,
      "Ġpond": 3326,
      "Ġpoint": 3327,
      "iced": 3328,
      "Ġblue": 3329,
      "Ġvag": 3330,
      "Ġviol": 3331,
      "ĠRUM": 3332,
      "Ġsetting": 3333,
      "Ġflown": 3334,
      "Ġstring": 3335,
      "Ġenemy": 3336,
      "Ġletting": 3337,
      "Ġletters": 3338,
      "Ġeverybody": 3339,
      "Ġcommand": 3340,
      "Ġcover": 3341,
      "Ġcoffin": 3342,
      "umbles": 3343,
      "Ġsons": 3344,
      "Ġmighty": 3345,
      "ĠLinger": 3346,
      "Ġbehold": 3347,
      "ĠOf": 3348,
      "ĠOh": 3349,
      "ĠOpen": 3350,
      "Ġturning": 3351,
      "Ġscent": 3352,
      "Ġscythe": 3353,
      "Ġscattered": 3354,
      "Ġflee": 3355,
      "Ġswam": 3356,
      "Ġsword": 3357,
      "Ġworksh": 3358,
      "ips": 3359,
      "Ġcooking": 3360,
      "Ġfastened": 3361,
      "Ġappeared": 3362,
      "Ġfirepl": 3363,
      "Ġconf": 3364,
      "esty": 3365,
      "ledge": 3366,
      "Ġwindows": 3367,
      "Ġwise": 3368,
      "Ġwishes": 3369,
      "resses": 3370,
      "Ġarr": 3371,
      "Ġarrow": 3372,
      "Ġarose": 3373,
      "Ġglasses": 3374,
      "ressed": 3375,
      "Ġpicking": 3376,
      "ĠPoor": 3377,
      "Ġcrushed": 3378,
      "Ġcrawled": 3379,
      "Ġdwelt": 3380,
      "Ġdwelling": 3381,
      "Ġbottle": 3382,
      "Ġunb": 3383,
      "Ġunable": 3384,
      "Ġunwill": 3385,
      "Ġunhapp": 3386,
      "Ġtablet": 3387,
      "Ġrooms": 3388,
      "Ġlights": 3389,
      "Ġlightheart": 3390,
      "Ġcheer": 3391,
      "ĠJO": 3392,
      "Ġsilvery": 3393,
      "Ġhearse": 3394,
      "Ġpretend": 3395,
      "Ġpretended": 3396,
      "Ġliveli": 3397,
      "Ġfalling": 3398,
      "Ġgrandfather": 3399,
      "Ġmarry": 3400,
      "Ġmarriage": 3401,
      "Ġdrinking": 3402,
      "Ġrested": 3403,
      "Ġfriendly": 3404,
      "sol": 3405,
      "Ġkinds": 3406,
      "Ġtender": 3407,
      "Ġtempt": 3408,
      "Ġsnug": 3409,
      "Ġsnored": 3410,
      "Ġdisp": 3411,
      "Ġdismiss": 3412,
      "Ġlandlord": 3413,
      "Ġmisery": 3414,
      "Ġmiserably": 3415,
      "Ġburied": 3416,
      "Ġcreeping": 3417,
      "Ġclean": 3418,
      "Ġsentenced": 3419,
      "Ġminds": 3420,
      "Ġslippers": 3421,
      "Ġdesire": 3422,
      "Ġasks": 3423,
      "Ġfeeling": 3424,
      "tains": 3425,
      "Ġlovely": 3426,
      "Ġpockets": 3427,
      "Ġenter": 3428,
      "Ġentice": 3429,
      "Ġbreast": 3430,
      "Ġbreath": 3431,
      "Ġnearly": 3432,
      "Ġplaying": 3433,
      "Ġenchanted": 3434,
      "Ġski": 3435,
      "Ġamongst": 3436,
      "Ġtravel": 3437,
      "Ġtravell": 3438,
      "Ġthrowing": 3439,
      "onsense": 3440,
      "Ġraised": 3441,
      "Ġtroubles": 3442,
      "actly": 3443,
      "Ġremain": 3444,
      "Ġspeaking": 3445,
      "umbling": 3446,
      "pering": 3447,
      "Ġdelic": 3448,
      "Ġcontented": 3449,
      "Ġexactly": 3450,
      "Ġstretch": 3451,
      "ction": 3452,
      "Ġsoundly": 3453,
      "Ġbenches": 3454,
      "Ġcurling": 3455,
      "Ġmountain": 3456,
      "Ġsausages": 3457,
      "Ġpropos": 3458,
      "Ġholes": 3459,
      "iety": 3460,
      "Ġsorrowfully": 3461,
      "ations": 3462,
      "Ġsacks": 3463,
      "Ġtalking": 3464,
      "ING": 3465,
      "mbered": 3466,
      "Ġfinish": 3467,
      "Ġfowl": 3468,
      "Ġmurder": 3469,
      "Ġpinched": 3470,
      "Ġinns": 3471,
      "ĠThumb": 3472,
      "Ġesp": 3473,
      "Ġcapital": 3474,
      "Ġgrows": 3475,
      "Ġgrowing": 3476,
      "Ġaccused": 3477,
      "Ġlistening": 3478,
      "Ġdriven": 3479,
      "Ġdreadful": 3480,
      "Ġdreadfully": 3481,
      "Ġprice": 3482,
      "Ġrefuse": 3483,
      "Ġspinning": 3484,
      "Ġdrops": 3485,
      "Ġdragging": 3486,
      "Ġcostly": 3487,
      "Ġsorts": 3488,
      "Ġfuel": 3489,
      "Ġtonight": 3490,
      "Ġladies": 3491,
      "Ġladder": 3492,
      "Ġbeginning": 3493,
      "Ġwonderful": 3494,
      "eezed": 3495,
      "Ġsquire": 3496,
      "Ġsqueezed": 3497,
      "Ġbushes": 3498,
      "Ġdistress": 3499,
      "Ġprep": 3500,
      "Ġprevent": 3501,
      "Ġsteal": 3502,
      "Ġstepped": 3503,
      "Ġattend": 3504,
      "Ġattempt": 3505,
      "Ġspoon": 3506,
      "ĠMeanwh": 3507,
      "Ġcross": 3508,
      "Ġcroaked": 3509,
      "Ġdeserves": 3510,
      "ENT": 3511,
      "Heaven": 3512,
      "TLET": 3513,
      "mediately": 3514,
      "why": 3515,
      "Ġwrapped": 3516,
      "Ġguards": 3517,
      "Ġpigeons": 3518,
      "Ġleathern": 3519,
      "Ġbelieve": 3520,
      "Ġpantaloons": 3521,
      "Ġbeans": 3522,
      "Ġrising": 3523,
      "Ġrisen": 3524,
      "Ġstirred": 3525,
      "Ġsearch": 3526,
      "Ġsearched": 3527,
      "Ġremembered": 3528,
      "Ġturnips": 3529,
      "Ġglittered": 3530,
      "Ġglittering": 3531,
      "ĠEverything": 3532,
      "Ġrejoicing": 3533,
      "TICLE": 3534,
      "like": 3535,
      "Ġsimple": 3536,
      "Ġsimplet": 3537,
      "Ġgallows": 3538,
      "Ġangels": 3539,
      "Ġspirit": 3540,
      "Ġspirits": 3541,
      "Ġawaken": 3542,
      "Ġawakened": 3543,
      "Ġharnessed": 3544,
      "Ġsuspic": 3545,
      "Ġblew": 3546,
      "Ġcrowd": 3547,
      "Ġdales": 3548,
      "Ġstrewed": 3549,
      "Ġknocking": 3550,
      "Ġcomrade": 3551,
      "Ġindustrious": 3552,
      "Ġcontinued": 3553,
      "LTSKIN": 3554,
      "Ġschool": 3555,
      "Ġfarmer": 3556,
      "Ġdetermined": 3557,
      "Ġdirectly": 3558,
      "Ġurchin": 3559,
      "Ġriches": 3560,
      "Ġsticks": 3561,
      "Ġanxiety": 3562,
      "Ġbraids": 3563,
      "ĠScarcely": 3564,
      "Ġchristening": 3565,
      "Ġalarmed": 3566,
      "Ġdeclared": 3567,
      "Ġrobber": 3568,
      "Ġboldly": 3569,
      "Ġpossible": 3570,
      "Ġthankful": 3571,
      "Ġstrangers": 3572,
      "Ġcomplained": 3573,
      "Ġunderstanding": 3574,
      "Ġgloomy": 3575,
      "ĠPARTLET": 3576,
      "Ġcrumbs": 3577,
      "Ġbelonged": 3578,
      "Ġaccording": 3579,
      "Ġvexed": 3580,
      "Ġthreatened": 3581,
      "Ġscissors": 3582,
      "Listen": 3583,
      "Stop": 3584,
      "STILTSKIN": 3585,
      "Unlucky": 3586,
      "Ġidea": 3587,
      "ĠNevertheless": 3588,
      "Ġslyly": 3589,
      "Ġwadd": 3590,
      "Ġhonour": 3591,
      "Ġberries": 3592,
      "Ġoccurred": 3593,
      "Ġcircle": 3594,
      "Ġfanc": 3595,
      "Ġfountain": 3596,
      "Ġmajesty": 3597,
      "Ġthreshold": 3598,
      "Ġgifts": 3599,
      "Ġpardon": 3600,
      "Ġpierced": 3601,
      "Ġnasty": 3602,
      "Ġnurse": 3603,
      "Ġnimbly": 3604,
      "Ġinquired": 3605,
      "Ġinjury": 3606,
      "Ġyesterday": 3607,
      "Ġstolen": 3608,
      "ĠApple": 3609,
      "Ġseashore": 3610,
      "ĠSunday": 3611,
      "Ġliberty": 3612,
      "Ġoverjoyed": 3613,
      "ĠCLEVER": 3614,
      "ĠCHANTICLE": 3615,
      "Ġvagab": 3616,
      "Ġviolent": 3617,
      "ĠRUMP": 3618,
      "Ġworkshop": 3619,
      "Ġfireplace": 3620,
      "Ġunhappy": 3621,
      "Ġlighthearted": 3622,
      "Ġlivelihood": 3623,
      "ĠMeanwhile": 3624,
      "ĠCHANTICLEER": 3625,
      "),": 3626,
      ">,": 3627,
      "?âĢĶ": 3628,
      "AK": 3629,
      "AL": 3630,
      "AP": 3631,
      "AS": 3632,
      "Al": 3633,
      "Are": 3634,
      "Back": 3635,
      "Boy": 3636,
      "CH": 3637,
      "Cl": 3638,
      "Cock": 3639,
      "EG": 3640,
      "EV": 3641,
      "Elsie": 3642,
      "ETEL": 3643,
      "For": 3644,
      "Father": 3645,
      "First": 3646,
      "Fool": 3647,
      "Fundevogel": 3648,
      "Hither": 3649,
      "ID": 3650,
      "IL": 3651,
      "IED": 3652,
      "Jip": 3653,
      "LD": 3654,
      "Lie": 3655,
      "Lift": 3656,
      "Mad": 3657,
      "Master": 3658,
      "OR": 3659,
      "On": 3660,
      "Old": 3661,
      "Put": 3662,
      "RA": 3663,
      "Run": 3664,
      "Round": 3665,
      "ROO": 3666,
      "SE": 3667,
      "SH": 3668,
      "THE": 3669,
      "UR": 3670,
      "UT": 3671,
      "Wait": 3672,
      "av": 3673,
      "aved": 3674,
      "aft": 3675,
      "affin": 3676,
      "be": 3677,
      "bo": 3678,
      "bed": 3679,
      "bing": 3680,
      "bird": 3681,
      "back": 3682,
      "bble": 3683,
      "bgo": 3684,
      "case": 3685,
      "cure": 3686,
      "dging": 3687,
      "ef": 3688,
      "eas": 3689,
      "eent": 3690,
      "ection": 3691,
      "fl": 3692,
      "fit": 3693,
      "gay": 3694,
      "gers": 3695,
      "hall": 3696,
      "iar": 3697,
      "iver": 3698,
      "ike": 3699,
      "iant": 3700,
      "ial": 3701,
      "ize": 3702,
      "jection": 3703,
      "kind": 3704,
      "lt": 3705,
      "lid": 3706,
      "lter": 3707,
      "land": 3708,
      "lack": 3709,
      "lace": 3710,
      "lcome": 3711,
      "mer": 3712,
      "more": 3713,
      "mark": 3714,
      "na": 3715,
      "nets": 3716,
      "oak": 3717,
      "onder": 3718,
      "opping": 3719,
      "oaned": 3720,
      "pent": 3721,
      "pick": 3722,
      "pair": 3723,
      "piece": 3724,
      "rr": 3725,
      "ron": 3726,
      "raw": 3727,
      "rumb": 3728,
      "rounded": 3729,
      "su": 3730,
      "say": 3731,
      "sick": 3732,
      "sily": 3733,
      "sation": 3734,
      "tw": 3735,
      "tell": 3736,
      "tap": 3737,
      "ub": 3738,
      "ume": 3739,
      "ught": 3740,
      "under": 3741,
      "uman": 3742,
      "ures": 3743,
      "udd": 3744,
      "ually": 3745,
      "udden": 3746,
      "ware": 3747,
      "ĠN": 3748,
      "Ġimp": 3749,
      "ĠNe": 3750,
      "held": 3751,
      "hest": 3752,
      "hecy": 3753,
      "Ġtid": 3754,
      "Ġtread": 3755,
      "Ġtilt": 3756,
      "Ġtiled": 3757,
      "Ġtresses": 3758,
      "Ġadd": 3759,
      "Ġadded": 3760,
      "Ġsin": 3761,
      "Ġsigh": 3762,
      "Ġsank": 3763,
      "Ġsinner": 3764,
      "Ġsighed": 3765,
      "Ġwet": 3766,
      "Ġwore": 3767,
      "Ġwag": 3768,
      "Ġwipe": 3769,
      "Ġwages": 3770,
      "nds": 3771,
      "ndle": 3772,
      "inut": 3773,
      "inated": 3774,
      "ination": 3775,
      "Ġhot": 3776,
      "Ġhook": 3777,
      "Ġhick": 3778,
      "Ġhum": 3779,
      "Ġhug": 3780,
      "Ġhated": 3781,
      "Ġhope": 3782,
      "Ġhuman": 3783,
      "reat": 3784,
      "rent": 3785,
      "Ġbore": 3786,
      "Ġbone": 3787,
      "Ġbite": 3788,
      "Ġbos": 3789,
      "Ġbuck": 3790,
      "Ġbars": 3791,
      "Ġbask": 3792,
      "Ġburd": 3793,
      "Ġbounded": 3794,
      "Ġbaked": 3795,
      "Ġbung": 3796,
      "oughed": 3797,
      "Ġhen": 3798,
      "Ġheated": 3799,
      "Ġoak": 3800,
      "Ġcind": 3801,
      "Ġcous": 3802,
      "Ġcries": 3803,
      "itched": 3804,
      "Ġfir": 3805,
      "Ġfun": 3806,
      "Ġfry": 3807,
      "Ġfurn": 3808,
      "Ġfully": 3809,
      "Ġfift": 3810,
      "Ġfools": 3811,
      "Ġfitted": 3812,
      "Ġtoe": 3813,
      "Ġtoken": 3814,
      "Ġmor": 3815,
      "Ġmot": 3816,
      "Ġmast": 3817,
      "Ġmal": 3818,
      "Ġmock": 3819,
      "Ġmass": 3820,
      "Ġmutt": 3821,
      "Ġmedd": 3822,
      "Ġmatch": 3823,
      "Ġminut": 3824,
      "ert": 3825,
      "erry": 3826,
      "errily": 3827,
      "ater": 3828,
      "ating": 3829,
      "attled": 3830,
      "Ġdoo": 3831,
      "Ġdif": 3832,
      "Ġdun": 3833,
      "Ġdart": 3834,
      "Ġdough": 3835,
      "Ġdouble": 3836,
      "Ġdived": 3837,
      "Ġdoodle": 3838,
      "Ġdaily": 3839,
      "Ġlent": 3840,
      "Ġlone": 3841,
      "Ġlack": 3842,
      "Ġlimp": 3843,
      "Ġlatch": 3844,
      "Ġlater": 3845,
      "ingling": 3846,
      "asing": 3847,
      "asping": 3848,
      "isure": 3849,
      "isible": 3850,
      "Ġthin": 3851,
      "Ġthine": 3852,
      "Ġthumb": 3853,
      "Ġthirt": 3854,
      "Ġthunder": 3855,
      "Ġgain": 3856,
      "Ġgown": 3857,
      "Ġgather": 3858,
      "Ġgently": 3859,
      "Ġgasping": 3860,
      "enchant": 3861,
      "engers": 3862,
      "ans": 3863,
      "any": 3864,
      "anna": 3865,
      "orm": 3866,
      "orted": 3867,
      "ortun": 3868,
      "orins": 3869,
      "ider": 3870,
      "iding": 3871,
      "ident": 3872,
      "Ġpel": 3873,
      "Ġpite": 3874,
      "Ġpink": 3875,
      "Ġpare": 3876,
      "Ġpure": 3877,
      "Ġpush": 3878,
      "Ġpina": 3879,
      "Ġpains": 3880,
      "Ġpipe": 3881,
      "Ġpatch": 3882,
      "Ġpati": 3883,
      "Ġporch": 3884,
      "Ġpomp": 3885,
      "Ġpressed": 3886,
      "leven": 3887,
      "lected": 3888,
      "Ġnim": 3889,
      "Ġnaught": 3890,
      "Ġnum": 3891,
      "Ġnag": 3892,
      "Ġnarrow": 3893,
      "Ġnaked": 3894,
      "Ġnamed": 3895,
      "Ġnonsense": 3896,
      "Ġinter": 3897,
      "Ġinfor": 3898,
      "Ġincl": 3899,
      "othel": 3900,
      "oned": 3901,
      "onight": 3902,
      "Ġbeat": 3903,
      "Ġbeth": 3904,
      "Ġbeings": 3905,
      "Ġbeef": 3906,
      "Ġbeheld": 3907,
      "ldron": 3908,
      "Ġsaf": 3909,
      "Ġyonder": 3910,
      "uted": 3911,
      "utched": 3912,
      "Ġshells": 3913,
      "Ġshelter": 3914,
      "ĠTu": 3915,
      "ĠThat": 3916,
      "ĠTime": 3917,
      "ĠTurtle": 3918,
      "henware": 3919,
      "ays": 3920,
      "Ġsole": 3921,
      "Ġsorely": 3922,
      "stantly": 3923,
      "Ġash": 3924,
      "irrel": 3925,
      "irping": 3926,
      "Ġwhilst": 3927,
      "versation": 3928,
      "Ġrust": 3929,
      "Ġrack": 3930,
      "Ġrip": 3931,
      "Ġrattled": 3932,
      "Ġrays": 3933,
      "cking": 3934,
      "Ġeart": 3935,
      "Ġeither": 3936,
      "Ġeleven": 3937,
      "Ġsting": 3938,
      "Ġstar": 3939,
      "Ġstore": 3940,
      "Ġstall": 3941,
      "Ġstair": 3942,
      "Ġstitch": 3943,
      "Ġstool": 3944,
      "Ġstored": 3945,
      "Ġforb": 3946,
      "Ġfork": 3947,
      "Ġforwards": 3948,
      "Ġforfe": 3949,
      "Ġforms": 3950,
      "etite": 3951,
      "Ġweight": 3952,
      "Ġweighed": 3953,
      "Ġwelcome": 3954,
      "Ġkick": 3955,
      "Ġkrr": 3956,
      "Ġnote": 3957,
      "Ġnoticed": 3958,
      "chance": 3959,
      "Ġcal": 3960,
      "Ġcave": 3961,
      "Ġcapering": 3962,
      "Ġcandle": 3963,
      "ades": 3964,
      "iful": 3965,
      "ention": 3966,
      "ĠThese": 3967,
      "Ġshare": 3968,
      "Ġshower": 3969,
      "Ġshared": 3970,
      "Ġshift": 3971,
      "Ġshaking": 3972,
      "Ġshirt": 3973,
      "Ġshudd": 3974,
      "Ġupper": 3975,
      "Ġupset": 3976,
      "Ġallow": 3977,
      "key": 3978,
      "keep": 3979,
      "rior": 3980,
      "rios": 3981,
      "Ġmeant": 3982,
      "Ġmess": 3983,
      "Ġmeek": 3984,
      "Ġmelted": 3985,
      "Ġmeasure": 3986,
      "told": 3987,
      "together": 3988,
      "Ġgoss": 3989,
      "ĠAh": 3990,
      "ĠAgain": 3991,
      "aste": 3992,
      "ants": 3993,
      "ĠHard": 3994,
      "ĠHither": 3995,
      "ĠHIS": 3996,
      "ĠHaste": 3997,
      "indly": 3998,
      "Ġbrink": 3999,
      "Ġbrushed": 4000,
      "Ġbridle": 4001,
      "Ġtapped": 4002,
      "Ġtapping": 4003,
      "ĠSN": 4004,
      "ĠSing": 4005,
      "ĠSeven": 4006,
      "ĠShall": 4007,
      "ĠSudden": 4008,
      "ĠSanna": 4009,
      "Ġreck": 4010,
      "Ġreel": 4011,
      "Ġrepe": 4012,
      "Ġresol": 4013,
      "Ġchap": 4014,
      "Ġchuck": 4015,
      "Ġchatter": 4016,
      "Ġchaf": 4017,
      "Ġchanced": 4018,
      "Ġchaffin": 4019,
      "Ġchirping": 4020,
      "ilts": 4021,
      "iliar": 4022,
      "urs": 4023,
      "urry": 4024,
      "thy": 4025,
      "thou": 4026,
      "this": 4027,
      "thren": 4028,
      "Ġmyster": 4029,
      "Ġliqu": 4030,
      "Ġlicked": 4031,
      "ppose": 4032,
      "Ġspat": 4033,
      "Ġspell": 4034,
      "Ġspend": 4035,
      "Ġsplas": 4036,
      "Ġspilt": 4037,
      "Ġspurs": 4038,
      "epence": 4039,
      "alk": 4040,
      "aled": 4041,
      "Ġnodded": 4042,
      "Ġaged": 4043,
      "Ġagree": 4044,
      "ĠWor": 4045,
      "ĠWENT": 4046,
      "Ġjoll": 4047,
      "Ġjingling": 4048,
      "ĠBE": 4049,
      "ĠBear": 4050,
      "ĠBRI": 4051,
      "ĠBIR": 4052,
      "ĠBesides": 4053,
      "ĠBlack": 4054,
      "Ġaltogether": 4055,
      "Ġmanage": 4056,
      "Ġmankind": 4057,
      "Ġdec": 4058,
      "Ġdew": 4059,
      "Ġdemand": 4060,
      "Ġleisure": 4061,
      "Ġroaring": 4062,
      "Ġworst": 4063,
      "Ġsomebody": 4064,
      "Ġsomewhere": 4065,
      "Ġsometime": 4066,
      "iew": 4067,
      "ildren": 4068,
      "Ġgiving": 4069,
      "Ġoffer": 4070,
      "Ġhowl": 4071,
      "Ġseeks": 4072,
      "Ġseeking": 4073,
      "Ġhomesick": 4074,
      "Ġyourselves": 4075,
      "Ġdrain": 4076,
      "Ġdroll": 4077,
      "Ġdrunk": 4078,
      "ĠGo": 4079,
      "ĠGive": 4080,
      "ĠGothel": 4081,
      "Ġgoods": 4082,
      "Ġpeel": 4083,
      "Ġgrim": 4084,
      "Ġgrove": 4085,
      "Ġgroped": 4086,
      "Ġgrumbling": 4087,
      "Ġsuck": 4088,
      "Ġamb": 4089,
      "Ġamuse": 4090,
      "Ġlonged": 4091,
      "Ġlonging": 4092,
      "Ġplun": 4093,
      "Ġplag": 4094,
      "Ġplash": 4095,
      "Ġplague": 4096,
      "Ġplume": 4097,
      "Ġploughed": 4098,
      "osite": 4099,
      "ĠCAT": 4100,
      "Ġclod": 4101,
      "Ġcloud": 4102,
      "Ġclamb": 4103,
      "Ġcloak": 4104,
      "Ġclutched": 4105,
      "Ġthoughts": 4106,
      "nts": 4107,
      "igue": 4108,
      "Ġbackwards": 4109,
      "Ġrang": 4110,
      "Ġeats": 4111,
      "Ġputting": 4112,
      "Ġsooner": 4113,
      "Ġboil": 4114,
      "Ġboiled": 4115,
      "Ġlog": 4116,
      "Ġlodging": 4117,
      "Ġpopped": 4118,
      "Ġhorseback": 4119,
      "Ġblaz": 4120,
      "Ġcarpent": 4121,
      "Ġview": 4122,
      "ĠRO": 4123,
      "ĠRED": 4124,
      "ĠReel": 4125,
      "ftly": 4126,
      "Ġflutter": 4127,
      "Ġflorins": 4128,
      "Ġthanked": 4129,
      "ĠMaster": 4130,
      "ĠMany": 4131,
      "Ġstriding": 4132,
      "ĠHeaven": 4133,
      "Ġmornings": 4134,
      "Ġbedroom": 4135,
      "Ġcolour": 4136,
      "rowler": 4137,
      "getable": 4138,
      "umed": 4139,
      "arsh": 4140,
      "awl": 4141,
      "ĠLo": 4142,
      "ĠLong": 4143,
      "ĠFR": 4144,
      "ĠFirst": 4145,
      "ĠFrom": 4146,
      "Ġnights": 4147,
      "Ġtailors": 4148,
      "ĠOF": 4149,
      "ĠOur": 4150,
      "ĠOLD": 4151,
      "Ġlaying": 4152,
      "Ġknowledge": 4153,
      "Ġforetell": 4154,
      "Ġforetold": 4155,
      "Ġmakes": 4156,
      "Ġflesh": 4157,
      "Ġhearts": 4158,
      "Ġhearty": 4159,
      "Ġhearted": 4160,
      "Ġcatches": 4161,
      "ions": 4162,
      "Ġswore": 4163,
      "Ġswung": 4164,
      "Ġhopping": 4165,
      "Ġhobgo": 4166,
      "Ġmillet": 4167,
      "Ġbringing": 4168,
      "Ġworking": 4169,
      "Ġbetray": 4170,
      "Ġshove": 4171,
      "Ġcoward": 4172,
      "Ġappear": 4173,
      "Ġappetite": 4174,
      "Ġwaved": 4175,
      "Ġfireside": 4176,
      "Ġmischance": 4177,
      "Ġthroughout": 4178,
      "Ġconqu": 4179,
      "Ġconside": 4180,
      "Ġcontain": 4181,
      "Ġconversation": 4182,
      "Ġsings": 4183,
      "Ġhunt": 4184,
      "Ġeye": 4185,
      "oyed": 4186,
      "ĠEL": 4187,
      "Ġcareful": 4188,
      "Ġcareless": 4189,
      "Ġjustice": 4190,
      "Ġmoss": 4191,
      "Ġmoving": 4192,
      "ĠPRIN": 4193,
      "Ġsleepers": 4194,
      "Ġcrack": 4195,
      "Ġcrash": 4196,
      "Ġcracked": 4197,
      "Ġcraft": 4198,
      "Ġunc": 4199,
      "plash": 4200,
      "They": 4201,
      "These": 4202,
      "ogn": 4203,
      "Ġaware": 4204,
      "Ġdearth": 4205,
      "Ġslice": 4206,
      "Ġslaught": 4207,
      "Ġcheap": 4208,
      "Ġsmo": 4209,
      "Ġsmoke": 4210,
      "Ġsilence": 4211,
      "Ġbiggest": 4212,
      "Ġcounted": 4213,
      "ĠChrist": 4214,
      "Ġcourse": 4215,
      "Ġfalls": 4216,
      "Ġperch": 4217,
      "Ġperish": 4218,
      "Ġperfe": 4219,
      "Ġmarched": 4220,
      "Ġresting": 4221,
      "Ġclothing": 4222,
      "soever": 4223,
      "Ġbarn": 4224,
      "Ġbarked": 4225,
      "Ġkeeps": 4226,
      "Ġtreac": 4227,
      "Ġtremb": 4228,
      "Ġtreasure": 4229,
      "Ġsnore": 4230,
      "Ġsnake": 4231,
      "Ġsnail": 4232,
      "Ġsnatched": 4233,
      "Ġsnips": 4234,
      "Ġdisenchant": 4235,
      "Ġlandmark": 4236,
      "Ġbestow": 4237,
      "Ġfatten": 4238,
      "Ġfatigue": 4239,
      "Ġluckily": 4240,
      "Ġjoyful": 4241,
      "Ġjoyfully": 4242,
      "Ġjoyously": 4243,
      "Ġtrying": 4244,
      "Ġbuz": 4245,
      "Ġbuild": 4246,
      "Ġcleaned": 4247,
      "Ġembr": 4248,
      "Ġstaying": 4249,
      "Ġdrawer": 4250,
      "Ġdrawing": 4251,
      "itches": 4252,
      "Ġended": 4253,
      "Ġholding": 4254,
      "bbed": 4255,
      "bbled": 4256,
      "Ġdesired": 4257,
      "Ġdespair": 4258,
      "Ġjumping": 4259,
      "Ġmaidens": 4260,
      "Ġfetching": 4261,
      "ffed": 4262,
      "tunes": 4263,
      "Ġretire": 4264,
      "Ġfeasting": 4265,
      "ude": 4266,
      "udge": 4267,
      "ugg": 4268,
      "Ġentreat": 4269,
      "Ġbreathe": 4270,
      "Ġbrethren": 4271,
      "Ġenchantment": 4272,
      "ounce": 4273,
      "Ġmatters": 4274,
      "Ġfourth": 4275,
      "Ġpubl": 4276,
      "iftly": 4277,
      "ĠWhy": 4278,
      "Ġfooted": 4279,
      "Ġrichly": 4280,
      "Ġhastily": 4281,
      "Ġtowel": 4282,
      "Ġelb": 4283,
      "Ġdeepest": 4284,
      "Ġcheeses": 4285,
      "Ġgateway": 4286,
      "Ġuseful": 4287,
      "Ġrobbed": 4288,
      "Ġcontent": 4289,
      "ANT": 4290,
      "Because": 4291,
      "Thank": 4292,
      "ĠDon": 4293,
      "ĠDev": 4294,
      "ĠDIED": 4295,
      "Ġexce": 4296,
      "Ġexpected": 4297,
      "Ġcause": 4298,
      "Ġcauldron": 4299,
      "shells": 4300,
      "Ġhours": 4301,
      "Ġobjection": 4302,
      "Ġcurtains": 4303,
      "Ġcasks": 4304,
      "Ġmounted": 4305,
      "Ġsoftened": 4306,
      "Ġproper": 4307,
      "Ġprophecy": 4308,
      "pray": 4309,
      "Ġsorrows": 4310,
      "Ġsorrowed": 4311,
      "Ġsixth": 4312,
      "Ġsixty": 4313,
      "Ġmilking": 4314,
      "Ġdirt": 4315,
      "Ġlamps": 4316,
      "Ġlambs": 4317,
      "Ġstreamed": 4318,
      "Ġroasted": 4319,
      "Ġpearl": 4320,
      "Ġjourneyed": 4321,
      "pening": 4322,
      "Ġtasting": 4323,
      "Ġadm": 4324,
      "Ġhurried": 4325,
      "Ġcupbo": 4326,
      "Ġfiner": 4327,
      "Ġdreamt": 4328,
      "Ġdreaming": 4329,
      "Ġlaugh": 4330,
      "Ġpowerful": 4331,
      "Ġbodies": 4332,
      "Ġcombed": 4333,
      "Ġcombing": 4334,
      "Ġconsider": 4335,
      "Ġbargains": 4336,
      "Ġskins": 4337,
      "ELSTILTSKIN": 4338,
      "Nothing": 4339,
      "Ġdrive": 4340,
      "Ġdreaded": 4341,
      "Ġpriest": 4342,
      "Ġprize": 4343,
      "Ġnicely": 4344,
      "Ġsalted": 4345,
      "Ġnewly": 4346,
      "Ġenjoyed": 4347,
      "Ġgladness": 4348,
      "Ġemptied": 4349,
      "Ġfurious": 4350,
      "Ġriding": 4351,
      "Ġprocure": 4352,
      "Ġscrape": 4353,
      "Ġscramb": 4354,
      "Ġsquirrel": 4355,
      "Ġwarned": 4356,
      "Ġwarrior": 4357,
      "Ġhighest": 4358,
      "Ġprecious": 4359,
      "Ġpurple": 4360,
      "Ġgodless": 4361,
      "Ġrejoice": 4362,
      "Ġspoken": 4363,
      "Ġspoiled": 4364,
      "Ġjudged": 4365,
      "Ġcrossed": 4366,
      "Ġdesert": 4367,
      "Ġdeserve": 4368,
      "ship": 4369,
      "Ġvegetable": 4370,
      "Ġguard": 4371,
      "Ġpainter": 4372,
      "Ġpainted": 4373,
      "Ġinvisible": 4374,
      "Ġyards": 4375,
      "Ġsharpening": 4376,
      "Ġanimal": 4377,
      "Ġsupported": 4378,
      "Ġhappens": 4379,
      "Ġbrightly": 4380,
      "Brother": 4381,
      "emned": 4382,
      "Ġbitter": 4383,
      "Ġfamous": 4384,
      "Ġfamily": 4385,
      "Ġfamiliar": 4386,
      "Ġthreepence": 4387,
      "Ġpantry": 4388,
      "Ġinsist": 4389,
      "Ġinspected": 4390,
      "Ġinsulted": 4391,
      "Ġrascals": 4392,
      "Ġstirring": 4393,
      "Ġreality": 4394,
      "Ġrequire": 4395,
      "Ġcatching": 4396,
      "Ġmisfortunes": 4397,
      "Ġcreatures": 4398,
      "Ġcompanions": 4399,
      "Ġterrible": 4400,
      "RIND": 4401,
      "Stand": 4402,
      "Stuck": 4403,
      "Ġmadam": 4404,
      "Ġdeny": 4405,
      "Ġdangling": 4406,
      "Ġgallop": 4407,
      "Ġkissed": 4408,
      "Ġangrily": 4409,
      "Ġsecretly": 4410,
      "Ġcharming": 4411,
      "Ġjams": 4412,
      "Ġsummer": 4413,
      "Ġovertake": 4414,
      "Ġunkindly": 4415,
      "Ġyearning": 4416,
      "Ġdiscovered": 4417,
      "Ġlamenting": 4418,
      "Ġlamentations": 4419,
      "Ġmonths": 4420,
      "USE": 4421,
      "Ġcease": 4422,
      "Ġcurios": 4423,
      "Ġcrowed": 4424,
      "Ġintend": 4425,
      "Ġintended": 4426,
      "Ġbefell": 4427,
      "Ġbefallen": 4428,
      "ĠTOM": 4429,
      "Ġundone": 4430,
      "ĠAnother": 4431,
      "Ġchimneys": 4432,
      "Ġnosegay": 4433,
      "Ġgreedy": 4434,
      "Ġgreediness": 4435,
      "Ġrogues": 4436,
      "Ġroguery": 4437,
      "ĠGolden": 4438,
      "Ġcomrades": 4439,
      "Ġcruelty": 4440,
      "Ġkeys": 4441,
      "Ġdescended": 4442,
      "Ġindustry": 4443,
      "Ġprovide": 4444,
      "Ġprovision": 4445,
      "Ġneighbours": 4446,
      "Something": 4447,
      "blin": 4448,
      "ruly": 4449,
      "Ġsmell": 4450,
      "Ġblessing": 4451,
      "Ġopportun": 4452,
      "Ġopposite": 4453,
      "Ġmourn": 4454,
      "Ġdawned": 4455,
      "Ġgaze": 4456,
      "Ġgazing": 4457,
      "Ġpitied": 4458,
      "Ġpunish": 4459,
      "Ġpunished": 4460,
      "Ġpulling": 4461,
      "Ġraging": 4462,
      "Ġtallest": 4463,
      "ĠStraw": 4464,
      "Ġchatting": 4465,
      "Ġspiteful": 4466,
      "Ġsparkled": 4467,
      "Ġsparkling": 4468,
      "Ġclumsy": 4469,
      "Ġclumsily": 4470,
      "Ġtrusty": 4471,
      "Ġblinded": 4472,
      "ĠMOUSE": 4473,
      "Ġenvy": 4474,
      "Ġcondition": 4475,
      "Ġcondemned": 4476,
      "Ġapproach": 4477,
      "Ġapproached": 4478,
      "Ġconcert": 4479,
      "Ġcrowns": 4480,
      "Ġprettily": 4481,
      "Ġprettier": 4482,
      "Ġentirely": 4483,
      "Ġwretchedly": 4484,
      "Ġpudding": 4485,
      "Ġpuddings": 4486,
      "Ġdelightful": 4487,
      "Ġexcuse": 4488,
      "Ġobserving": 4489,
      "Ġinnocent": 4490,
      "Ġinnocence": 4491,
      "Ġmagnificently": 4492,
      "Ġbewailed": 4493,
      "Ġrespectable": 4494,
      "Ġsulky": 4495,
      "Ġsulkily": 4496,
      "Ġgentleman": 4497,
      "Half": 4498,
      "Softly": 4499,
      "Ġimmediately": 4500,
      "Ġaimed": 4501,
      "Ġsurrounded": 4502,
      "Ġsenseless": 4503,
      "Ġsignal": 4504,
      "Ġcouple": 4505,
      "Ġfiery": 4506,
      "Ġlinnets": 4507,
      "Ġgnat": 4508,
      "Ġgarland": 4509,
      "Ġpaces": 4510,
      "Ġpedlars": 4511,
      "Ġbesought": 4512,
      "Ġrowing": 4513,
      "Ġequal": 4514,
      "Ġeager": 4515,
      "Ġfortunately": 4516,
      "Ġshouting": 4517,
      "Ġbrushwood": 4518,
      "Ġbrisker": 4519,
      "Ġrecogn": 4520,
      "Ġrelated": 4521,
      "ĠGRETEL": 4522,
      "Ġsuitor": 4523,
      "Ġtrotted": 4524,
      "Ġtrumpets": 4525,
      "Ġcommanded": 4526,
      "Ġarrange": 4527,
      "Ġunwilling": 4528,
      "Ġcheerful": 4529,
      "ĠJORIND": 4530,
      "Ġdismissal": 4531,
      "Ġtravellers": 4532,
      "Ġdelicate": 4533,
      "Ġproposal": 4534,
      "Ġespied": 4535,
      "Ġprepare": 4536,
      "Ġattendants": 4537,
      "Ġsimpleton": 4538,
      "Ġwaddling": 4539,
      "Ġfancied": 4540,
      "Ġvagabonds": 4541,
      "ĠRUMPELSTILTSKIN": 4542,
      "Click": 4543,
      "Madam": 4544,
      "Only": 4545,
      "eenth": 4546,
      "ĠNext": 4547,
      "Ġtidings": 4548,
      "Ġsighing": 4549,
      "Ġhumming": 4550,
      "Ġbosom": 4551,
      "Ġbasket": 4552,
      "Ġburden": 4553,
      "Ġcinder": 4554,
      "Ġcousin": 4555,
      "Ġmorsel": 4556,
      "Ġmasters": 4557,
      "Ġmalice": 4558,
      "Ġmockingly": 4559,
      "Ġmuttered": 4560,
      "Ġdoublet": 4561,
      "Ġlentils": 4562,
      "Ġlonely": 4563,
      "Ġlimped": 4564,
      "Ġpelting": 4565,
      "Ġparents": 4566,
      "Ġpinafore": 4567,
      "Ġnimble": 4568,
      "Ġnumber": 4569,
      "Ġinformed": 4570,
      "Ġinclination": 4571,
      "Ġbethought": 4572,
      "Ġrustling": 4573,
      "Ġearthenware": 4574,
      "Ġstaircase": 4575,
      "Ġmessengers": 4576,
      "Ġgossip": 4577,
      "ĠSuddenly": 4578,
      "Ġrepeat": 4579,
      "Ġresolved": 4580,
      "Ġchafed": 4581,
      "Ġchaffinch": 4582,
      "Ġmysterious": 4583,
      "Ġjollily": 4584,
      "ĠBIRD": 4585,
      "ĠBlackbird": 4586,
      "Ġsometimes": 4587,
      "Ġplagued": 4588,
      "Ġclouds": 4589,
      "Ġclambered": 4590,
      "Ġcarpenter": 4591,
      "Ġhobgoblin": 4592,
      "Ġconsidered": 4593,
      "ĠPRINC": 4594,
      "Ġtreacher": 4595,
      "Ġtrembling": 4596,
      "Ġdisenchanted": 4597,
      "Ġpublic": 4598,
      "ĠDevil": 4599,
      "Ġcupboard": 4600,
      "Ġscrambled": 4601,
      "Ġvegetables": 4602,
      "Ġcuriosity": 4603
    },
    "merges": [
      "h e",
      "Ġ t",
      "Ġ a",
      "Ġt he",
      "Ġ s",
      "Ġ w",
      "n d",
      "i n",
      "â Ģ",
      "Ġa nd",
      "Ġ h",
      "r e",
      "Ġ b",
      "o u",
      "Ġ he",
      "Ġ o",
      "Ġ c",
      "i t",
      "Ġ f",
      "Ġt o",
      "Ġ m",
      "e d",
      "l l",
      "e r",
      "a t",
      "âĢ Ļ",
      "Ġ d",
      "Ġ l",
      "in g",
      "a s",
      "i s",
      "Ġ âĢ",
      "Ġt h",
      "ĠâĢ ĺ",
      "Ġ g",
      "e n",
      "a n",
      "o r",
      "i d",
      "Ġ p",
      "l e",
      "o w",
      "Ġ n",
      "a r",
      "Ġ in",
      "o t",
      "o n",
      "Ġh a",
      "Ġb e",
      "l d",
      "Ġs a",
      "m e",
      "Ġo f",
      "Ġ y",
      "u t",
      "Ġhe r",
      "Ġs he",
      "Ġw as",
      "Ġ it",
      "Ġ T",
      "Ġy ou",
      "v e",
      "s e",
      "Ġo n",
      "i ll",
      "o o",
      "g h",
      "Ġ Ċ",
      "Ġsa id",
      ". âĢĻ",
      "he n",
      "a y",
      "Ġth at",
      "he r",
      "Ġs o",
      "Ġ u",
      "s t",
      "Ġa s",
      "i r",
      "Ġw h",
      "v er",
      "Ġ r",
      "i m",
      "Ġ I",
      "gh t",
      "Ġh is",
      "c k",
      "Ġ e",
      "Ġs t",
      "Ġf or",
      "e t",
      "Ġh im",
      "it h",
      "Ġw e",
      "Ġha d",
      "c e",
      "Ġ k",
      "ou t",
      "Ġthe y",
      "Ġn ot",
      "c h",
      "Ġw ith",
      "Ġc a",
      "a d",
      "i f",
      "en t",
      "l y",
      "ou ld",
      "ĠT he",
      "Ġs h",
      "Ġb ut",
      "Ġu p",
      "Ġa ll",
      "o m",
      "k e",
      "oo d",
      "Ġa t",
      "r i",
      "Ġw ill",
      "Ġm e",
      "Ġd o",
      "t o",
      "it t",
      "e s",
      "Ġg o",
      "Ġ out",
      ", âĢĻ",
      "Ġ A",
      "Ġin to",
      "Ġa n",
      "as t",
      "l f",
      "Ġs e",
      "o me",
      "a in",
      "o re",
      "e l",
      "Ġ is",
      "re d",
      "an t",
      "ow n",
      "Ġca me",
      "Ġ H",
      "Ġw hen",
      "Ġw ent",
      "i nd",
      "ĠT hen",
      "Ġb r",
      "Ġha ve",
      "itt le",
      "Ġt a",
      "i ght",
      "Ġ S",
      "Ġ re",
      "on e",
      "t er",
      "Ġl ittle",
      "Ġthe m",
      "Ġon e",
      "Ġc h",
      "ver y",
      "i l",
      "Ġd own",
      "ot her",
      "a ll",
      "Ġwe re",
      "oo k",
      "ar d",
      "! âĢĻ",
      "u n",
      "Ġthe re",
      "u r",
      "t h",
      "w ay",
      "Ġm y",
      "e ll",
      "Ġl i",
      "p p",
      "? âĢĻ",
      "Ġs p",
      "Ġto o",
      "Ġn e",
      "e p",
      "a l",
      "Ġ <",
      "Ġn o",
      "Ġwh o",
      "a nd",
      "se lf",
      "Ġa g",
      "on g",
      "g e",
      "ou ght",
      "q u",
      "Ġ W",
      "ou nd",
      "v en",
      "Ġp r",
      "r y",
      "Ġa way",
      "Ġk ing",
      "he d",
      "Ġb y",
      "ri ed",
      "a ve",
      "Ġth is",
      "Ġg re",
      "Ġag ain",
      "Ġ j",
      "u st",
      "s s",
      "Ġ B",
      "re e",
      "re t",
      "Ġt i",
      "if e",
      "u l",
      "Ġwh i",
      "id e",
      "Ġc ould",
      "Ġ qu",
      "Ġa l",
      "Ġm an",
      "Ġ very",
      "ou r",
      "u s",
      "Ġf r",
      "Ġd e",
      "Ġwh at",
      "Ġw ould",
      "Ġl e",
      "Ġr o",
      "Ġl ook",
      "i ck",
      "he re",
      "Ġw or",
      "Ġso me",
      "ir d",
      "ĠH an",
      "a ck",
      "Ġd ay",
      "Ġtoo k",
      "i e",
      "Ġthe n",
      "Ġthe ir",
      "i ld",
      "Ġk n",
      "Ġg i",
      "ĠA nd",
      "h at",
      "Ġ if",
      "ar t",
      "Ġof f",
      "Ġti me",
      "Ġh ow",
      "Ġse e",
      "ou se",
      "Ġh ome",
      "Ġyou r",
      "Ġd r",
      "Ġd id",
      "Ġa re",
      "e red",
      "Ġup on",
      "Ġ G",
      "ĠB ut",
      "a id",
      "Ġg ood",
      "Ġa b",
      "Ġo ld",
      "at her",
      "Ġp e",
      "Ġt w",
      "Ġg r",
      "Ġch ild",
      "t her",
      "Ġbe g",
      "Ġs u",
      "a m",
      "Ġa m",
      "ou gh",
      "it e",
      "f ore",
      "o p",
      "in ce",
      "Ġgre at",
      "Ġl ong",
      "k ed",
      "Ġsh ould",
      "ĠS o",
      "Ġp l",
      "Ġsa w",
      "v ed",
      "Ġc ome",
      "Ġc ried",
      "f ter",
      "or n",
      "Ġfr om",
      "Ġwhi ch",
      "o s",
      "Ġb ird",
      "b le",
      "Ġo ver",
      "Ġ C",
      "Ġc l",
      "Ġpr ince",
      "a ke",
      "Ġw ife",
      "ĠW hen",
      "o ck",
      "en ed",
      "Ġdo or",
      "it le",
      "Ġth ought",
      "Ġo ther",
      "Ġc an",
      "ĠHan s",
      "Ġab out",
      "e ver",
      "n t",
      "Ġh ouse",
      "Ġm other",
      "a p",
      "Ġt r",
      "Ġsh all",
      "Ġl ast",
      "Ġta ke",
      "i g",
      "in e",
      "Ġf o",
      "Ġbe en",
      "Ġb ack",
      "Ġf ell",
      "Ġbe fore",
      "Ġgo ld",
      "Ġhe ad",
      "Ġbe a",
      "Ġo r",
      "Ġth r",
      "se l",
      "ur n",
      "Ġha nd",
      "Ġf e",
      "th ing",
      "a u",
      "u ck",
      "Ġg et",
      "Ġr an",
      "Ġe at",
      "Ġbea ut",
      "Ġt ree",
      "Ġa fter",
      "Ġw here",
      "ll ed",
      "ret el",
      "Ġm ust",
      "Ġhim self",
      "ĠG retel",
      "h ing",
      "Ġw at",
      "in k",
      "ad e",
      "a ce",
      "c hed",
      "Ġs at",
      "Ġw ay",
      "Ġm ore",
      "Ġp ut",
      "Ġso on",
      "Ġbeg an",
      "a k",
      "Ġb o",
      "Ġst ill",
      "Ġan y",
      "Ġtw o",
      "Ġh or",
      "Ġl o",
      "Ġbeaut if",
      "a ir",
      "Ġp o",
      "le ep",
      "Ġn ow",
      "Ġwe ll",
      "Ġli ke",
      "Ġhor se",
      "u e",
      "i c",
      "he s",
      "Ġw o",
      "s w",
      "nd er",
      "Ġb l",
      "Ġc ar",
      "om an",
      "Ġbeautif ul",
      "Ġ v",
      "Ġt ill",
      "Ġw oman",
      "Ġh as",
      "ve s",
      "ir st",
      "Ġan sw",
      "Ġta il",
      "Ġ R",
      "re n",
      "er s",
      "f t",
      "Ġs et",
      "Ġf l",
      "Ġf ather",
      "Ġm ade",
      "Ġth an",
      "an g",
      "Ġon ce",
      "Ġ M",
      "Ġst r",
      "Ġgi ve",
      "Ġ en",
      "Ġl et",
      "Ġu s",
      "Ġe very",
      "i re",
      "as s",
      "is h",
      "Ġg ot",
      "a ch",
      "i ce",
      "Ġw ant",
      "Ġm orn",
      "Ġnot hing",
      "ĠH e",
      "Ġmorn ing",
      "p t",
      "Ġc om",
      "Ġansw ered",
      "a me",
      "re ad",
      "Ġb ed",
      "Ġc o",
      "Ġg ave",
      "Ġha pp",
      "W hat",
      "m an",
      "r ow",
      "Ġw ood",
      "Ġhe ard",
      "g et",
      "au ght",
      "u m",
      "Ġs on",
      "Ġf ound",
      "ar s",
      "Ġon ly",
      "a w",
      "Ġm ight",
      "Ġlook ed",
      "a ge",
      "c ed",
      "n e",
      "Ġqu ite",
      "i ed",
      "l s",
      "u ll",
      "Ġ L",
      "Ġm u",
      "Ġwat er",
      "Ġ F",
      "Ġw ind",
      "Ġe ven",
      "Ġwo lf",
      "get her",
      "Ġmu ch",
      "N ow",
      "Ġf irst",
      "e en",
      "re w",
      "Ġto gether",
      "Ġm ay",
      "is t",
      "Ġn ight",
      "Ġca lled",
      "Ġpo or",
      "Ġtail or",
      "o ke",
      "Ġbe h",
      "Ġsa y",
      "w ard",
      "Ġ O",
      "Ġl ay",
      "Ġth ing",
      "Ġg ir",
      "Ġkn ow",
      "Ġhow ever",
      "Ġprince ss",
      "Ġhe re",
      "Ġc ut",
      "Ġf ri",
      "Ġf ore",
      "at h",
      "Ġd one",
      "Ġher self",
      "Ġst ood",
      "f ul",
      "a g",
      "Ġt urn",
      "Ġs c",
      "at e",
      "Ġyou n",
      "Ġpe as",
      "n ow",
      "t y",
      "Ġm ake",
      "oo m",
      "Ġas ked",
      "ĠS he",
      "Ġne ver",
      "Ġchild ren",
      "Ġgir l",
      "Ġto ld",
      "e ot",
      "s os",
      "t itle",
      "Ġf le",
      "ĠA t",
      "Ġle ft",
      "eot itle",
      "G ood",
      "âĢ Ķ",
      "ou nt",
      "Ġhe art",
      "Ġth ree",
      "Ġbr ought",
      "Ġqu een",
      "Ġfore st",
      "k en",
      "t ed",
      "w n",
      "Ġc at",
      "Ġd aught",
      "i on",
      "o se",
      "x t",
      "Ġs w",
      "Ġh o",
      "Ġm ill",
      "Ġk ill",
      "Ġbr ing",
      "Ġsp r",
      "Ġwor k",
      "i p",
      "ou s",
      "Ġg one",
      "Ġbe t",
      "Ġsh o",
      "Ġpeas ant",
      "e nd",
      "Ġc ow",
      "Ġc ook",
      "Ġf ast",
      "Ġf ind",
      "Ġne xt",
      "Ġfle w",
      "Ġa pp",
      "Ġw a",
      "Ġf ire",
      "Ġm is",
      "Ġm aid",
      "Ġu nder",
      "Ġr ound",
      "Ġe ach",
      "pp ed",
      "Ġwhi le",
      "Ġthr ough",
      "Ġeven ing",
      "Ġbeh ind",
      "Ġs ide",
      "Ġo p",
      "Ġc on",
      "Ġr un",
      "ĠThe y",
      "e st",
      "l ed",
      "Ġl aid",
      "Ġth ink",
      "Ġgold en",
      "Ġwind ow",
      "Y ou",
      "Ġs ing",
      "Ġw is",
      "Ġw al",
      "Ġh un",
      "Ġd an",
      "Ġbe c",
      "Ġe y",
      "ĠA s",
      "Ġsu ch",
      "ward s",
      "i ly",
      "o y",
      "Ġs er",
      "re s",
      "Ġhe a",
      "Ġas leep",
      "Ġan other",
      "Ġbr ide",
      "Ġwor ld",
      "Ġa r",
      "Ġg l",
      "Ġp ass",
      "Ġgo ing",
      "Ġdaught er",
      "Ġey es",
      "Ġ E",
      "Ġt ell",
      "re ss",
      "is e",
      "Ġp ick",
      "Ġca re",
      "ad y",
      "Ġj ust",
      "Ġsome thing",
      "e os",
      "Ġf ine",
      "Ġm o",
      "Ġyoun g",
      "Ġ P",
      "Ġ Now",
      "Ġs leep",
      "re am",
      "Ġc r",
      "Ġd w",
      "Ġu nt",
      "Ġwh ite",
      "ĠHan sel",
      "Ġfo x",
      "Ġwa it",
      "Ġo wn",
      "ow ed",
      "Ġman y",
      "A h",
      "i er",
      "v ing",
      "Ġb ot",
      "Ġg ard",
      "Ġu n",
      "Ġta ble",
      "Ġkn e",
      "sel ves",
      "Ġunt il",
      "Ġgard en",
      "H E",
      "p l",
      "s ide",
      "Ġ our",
      "Ġm er",
      "Ġr oom",
      "Ġdo g",
      "T he",
      "W h",
      "d d",
      "o g",
      "Ġa w",
      "Ġy e",
      "es s",
      "Ġde ar",
      "ie ce",
      "b y",
      "m other",
      "Ġf air",
      "Ġl ight",
      "ar f",
      "ĠThe re",
      "ast er",
      "Ġle ave",
      "Ġapp le",
      "a re",
      "d r",
      "z el",
      "Ġs l",
      "Ġc he",
      "it her",
      "is ter",
      "id d",
      "Ġp iece",
      "Ġha ir",
      "Ġe ar",
      "Ġwith out",
      "Ġbr other",
      "Ġen ough",
      "um p",
      "Ġser v",
      "Ġdw arf",
      "dr op",
      "b and",
      "o d",
      "u nd",
      "Ġ J",
      "Ġs m",
      "Ġs itt",
      "Ġs il",
      "Ġb ig",
      "Ġhe ar",
      "Ġl ar",
      "Ġp ret",
      "ow er",
      "ar k",
      "Ġit s",
      "ĠT HE",
      "ĠI n",
      "Ġst and",
      "Ġk e",
      "us band",
      "Ġgi ant",
      "now drop",
      "Ġsitt ing",
      "c o",
      "t s",
      "Ġs ister",
      "Ġc ast",
      "Ġc ount",
      "Ġr i",
      "ĠS nowdrop",
      "Ġli ve",
      "Ġde ad",
      "ĠC h",
      "Ġmill er",
      "l p",
      "Ġhe lp",
      "Ġc our",
      "Ġf all",
      "Ġm ouse",
      "Ġm aster",
      "as e",
      "Ġp er",
      "Ġp le",
      "ar m",
      "ar row",
      "Ġgr and",
      "Ġhapp ened",
      "Ġbet ter",
      "g ed",
      "i gh",
      "l ing",
      "o ve",
      "Ġw he",
      "Ġf is",
      "Ġf et",
      "Ġf ish",
      "Ġm ar",
      "as k",
      "Ġth rew",
      "Ġy et",
      "Ġr ight",
      "Ġlook ing",
      "Ġgi ven",
      "Ġdr ink",
      "ull y",
      "O h",
      "a b",
      "Ġ K",
      "Ġs un",
      "Ġl ife",
      "le er",
      "le ss",
      "Ġse ven",
      "ant ic",
      "Ġre st",
      "one y",
      "Ġthem selves",
      "Ġcl ot",
      "Ġcar ry",
      "Ġfri ght",
      "Ġfri end",
      "Ġkne w",
      "Ġcount ry",
      "ĠCh antic",
      "ĠChantic leer",
      "e se",
      "n ot",
      "s o",
      "Ġs it",
      "Ġb ar",
      "Ġb read",
      "Ġf a",
      "Ġst one",
      "Ġk ind",
      "Ġsee m",
      "Ġtr ue",
      "Ġfo ll",
      "Ġhand s",
      "Ġserv ant",
      "Ġke ep",
      "Ġcast le",
      "I f",
      "W ell",
      "e ak",
      "h is",
      "z ed",
      "Ġt e",
      "Ġt re",
      "Ġs n",
      "Ġh usband",
      "Ġf ull",
      "Ġd is",
      "Ġl and",
      "on es",
      "Ġbe st",
      "ur d",
      "way s",
      "Ġli ved",
      "Ġsp arrow",
      "Ġgr ound",
      "Ġbl ood",
      "Ġspr ang",
      "Ġlar ge",
      "T hat",
      "b er",
      "f or",
      "n ing",
      "Ġ red",
      "Ġw ine",
      "Ġf at",
      "Ġl uck",
      "an ge",
      "or d",
      "or row",
      "ĠT om",
      "Ġso ld",
      "Ġj oy",
      "Ġal ways",
      "Ġwor d",
      "Ġlong er",
      "Ġpl ace",
      "Ġwant ed",
      "ls ie",
      "Ġturn ed",
      "Ġmis er",
      "i es",
      "t ing",
      "u re",
      "Ġt ry",
      "Ġh ill",
      "Ġh ard",
      "Ġb u",
      "Ġc re",
      "Ġc le",
      "Ġth y",
      "an k",
      "se s",
      "ĠI t",
      "Ġe m",
      "Ġat e",
      "Ġre ady",
      "Ġal ong",
      "Ġsu re",
      "ĠC ap",
      "Ġcan not",
      "Ġor d",
      "Ġbo y",
      "ĠR ed",
      "Ġkill ed",
      "Ġhea v",
      "by e",
      "Ġgrand mother",
      "N o",
      "a ble",
      "p her",
      "Ġs ent",
      "Ġm oney",
      "Ġd uck",
      "Ġg ri",
      "le t",
      "Ġshe pher",
      "her man",
      "Ġst ay",
      "Ġse en",
      "Ġse co",
      "Ġre pl",
      "Ġli e",
      "Ġgre w",
      "us h",
      "Ġdr aw",
      "Ġcl ose",
      "ock ed",
      "air s",
      "Ġcar ried",
      "ĠM y",
      "Ġop en",
      "ĠE lsie",
      "Ġstand ing",
      "Ġfis herman",
      "Ġfright ened",
      "Ġshepher d",
      "Ġseco nd",
      "Ġrepl ied",
      "Y es",
      "g er",
      "y ing",
      "Ġa c",
      "ou d",
      "it c",
      "Ġm ind",
      "er ick",
      "at ter",
      "Ġbe l",
      "Ġsa me",
      "Ġe nd",
      "Ġwe pt",
      "red erick",
      "un zel",
      "Ġwho le",
      "Ġprince s",
      "ap unzel",
      "Ġthing s",
      "Ġho ld",
      "Ġwis hed",
      "Ġwal ked",
      "Ġbec ame",
      "Ġbot h",
      "Ġye ars",
      "Ġsl i",
      "idd le",
      "Ġpret ty",
      "b b",
      "f e",
      "i ve",
      "o l",
      "it ch",
      "Ġf ing",
      "Ġd es",
      "Ġl ed",
      "Ġl ist",
      "Ġth ird",
      "Ġp ig",
      "Ġn ame",
      "Ġsa d",
      "Ġas k",
      "ch ant",
      "Ġne ed",
      "Ġj ump",
      "ie f",
      "Ġfe el",
      "Ġany thing",
      "ĠO ne",
      "Ġmaid en",
      "Ġfet ch",
      "Ġclot hes",
      "Ġheav y",
      "N D",
      "a red",
      "d om",
      "f f",
      "f ully",
      "g th",
      "l as",
      "o ice",
      "t ain",
      "t un",
      "w hat",
      "Ġthe e",
      "Ġw ish",
      "Ġd rew",
      "Ġth ou",
      "Ġp ock",
      "Ġbe ast",
      "Ġre t",
      "Ġmy self",
      "Ġle g",
      "Ġfe ast",
      "Ġlo ve",
      "Ġevery thing",
      "Ġcom ing",
      "Ġsho e",
      "Ġsho es",
      "Ġop ened",
      "Ġwal k",
      "Ġpass ed",
      "Ġmer ry",
      "Ġpock et",
      "W e",
      "g ry",
      "n er",
      "o ld",
      "p e",
      "u d",
      "u g",
      "u p",
      "Ġ ent",
      "Ġa f",
      "Ġw ret",
      "Ġb re",
      "it y",
      "Ġf ar",
      "Ġm et",
      "Ġd ark",
      "Ġk itc",
      "Ġdo es",
      "ĠA fter",
      "Ġne ar",
      "Ġro ad",
      "Ġpl ay",
      "Ġhapp y",
      "Ġaw oke",
      "Ġsm all",
      "Ġcour t",
      "Ġsold ier",
      "Ġjump ed",
      "Ġkitc hen",
      "W here",
      "n ess",
      "t he",
      "Ġa ir",
      "Ġthe se",
      "ou ble",
      "Ġc ry",
      "at ed",
      "ing s",
      "as y",
      "Ġg ue",
      "or ind",
      "oo se",
      "Ġe ld",
      "Ġfor ced",
      "Ġne ck",
      "Ġti red",
      "Ġal so",
      "Ġcome s",
      "Ġeat en",
      "Ġv oice",
      "Ġfl ower",
      "Ġen chant",
      "ĠF rederick",
      "res ent",
      "ĠJ orind",
      "Ġsil ver",
      "Ġple as",
      "Ġret urn",
      "Ġgue st",
      "I t",
      "M y",
      "a ched",
      "i x",
      "i me",
      "Ġs k",
      "Ġh igh",
      "ou n",
      "Ġc ell",
      "Ġc art",
      "Ġm atter",
      "Ġl ying",
      "ot t",
      "ut t",
      "Ġas s",
      "Ġe ver",
      "out h",
      "ch ief",
      "el s",
      "el t",
      "ĠH ow",
      "ĠW hat",
      "Ġqu ick",
      "Ġal read",
      "Ġro d",
      "Ġam ong",
      "op le",
      "Ġtr ave",
      "Ġthr ow",
      "Ġlo ved",
      "Ġbl ow",
      "Ġbl ack",
      "ĠR apunzel",
      "Ġstr aw",
      "Ġsing ing",
      "Ġhea ven",
      "Ġgl ass",
      "Ġmo st",
      "Wh y",
      "Ġfing er",
      "Ġeld est",
      "Ġcell ar",
      "Ġalread y",
      "H ow",
      "a il",
      "c hes",
      "y ou",
      "Ġw all",
      "Ġw itch",
      "Ġh und",
      "Ġf our",
      "Ġm outh",
      "Ġd ress",
      "Ġp u",
      "on s",
      "Ġbe ar",
      "oo f",
      "Ġwh y",
      "Ġr a",
      "Ġst ep",
      "Ġwe ep",
      "ad a",
      "if t",
      "Ġsh ut",
      "th at",
      "al ada",
      "ge st",
      "ĠW h",
      "Ġal one",
      "us hed",
      "Ġde ath",
      "Ġkn ocked",
      "Ġdr ove",
      "Ġpe ople",
      "Ġtr ouble",
      "Ġfo ot",
      "Ġany one",
      "ne y",
      "ĠO n",
      "Ġdan ced",
      "Ġfair y",
      "Ġri ch",
      "Ġmar ried",
      "Ġgri e",
      "Ġrod e",
      "Ġhund red",
      "A las",
      "a c",
      "a le",
      "b ut",
      "e re",
      "i zed",
      "o pped",
      "r o",
      "w itt",
      "x e",
      "Ġs le",
      "in ner",
      "Ġh at",
      "Ġh ast",
      "Ġb all",
      "Ġc orn",
      "Ġf ood",
      "Ġf ace",
      "Ġto p",
      "Ġto w",
      "Ġto wards",
      "Ġd on",
      "is hed",
      "Ġth us",
      "Ġth ough",
      "en ce",
      "Ġp al",
      "Ġsa fe",
      "Ġas hes",
      "Ġr oof",
      "Ġe l",
      "Ġout side",
      "el ve",
      "Ġbr an",
      "Ġre m",
      "Ġsp eak",
      "Ġno ise",
      "Ġfr og",
      "Ġde ep",
      "ick ed",
      "art let",
      "Ġtw elve",
      "Ġfell ow",
      "Ġafter wards",
      "Ġwat ch",
      "Ġv ill",
      "Ġcom p",
      "um b",
      "ĠP artlet",
      "Ġwait ing",
      "Ġche ese",
      "Ġseem ed",
      "Ġprinces ses",
      "Ġwret ch",
      "Ġpal ace",
      "L E",
      "a z",
      "b od",
      "h p",
      "i le",
      "k s",
      "n ed",
      "p er",
      "r aid",
      "t le",
      "y witt",
      "Ġ ind",
      "Ġa xe",
      "Ġs now",
      "Ġb ur",
      "er tain",
      "âĢĻ ;",
      "Ġd el",
      "Ġd ied",
      "Ġl oud",
      "Ġg ate",
      "Ġn ut",
      "Ġha lf",
      "Ġha ving",
      "ĠT his",
      "oo l",
      "Ġu se",
      "Ġfor th",
      "Ġca lf",
      "ĠA ND",
      "Ġse ized",
      "ain ed",
      "Ġta ken",
      "Ġre ached",
      "all y",
      "un ip",
      "Ġpr om",
      "Ġking dom",
      "Ġagain st",
      "Ġj unip",
      "ul t",
      "Ġro bb",
      "ie ld",
      "Ġyour self",
      "ather ine",
      "Ġbird s",
      "ĠC atherine",
      "Ġlo st",
      "Ġyoun gest",
      "Good bye",
      "Ġsw e",
      "Ġcon t",
      "Ġhun ts",
      "Ġdan ce",
      "ĠAs hp",
      "Ġdwarf s",
      "ĠK ywitt",
      "Ġfoll owed",
      "Ġcre pt",
      "Ġaf raid",
      "utt el",
      "bod y",
      "Ġjunip er",
      "ĠAshp uttel",
      "A N",
      "B e",
      "T h",
      "a ight",
      "i ved",
      "k ing",
      "w ise",
      "y al",
      "Ġ D",
      "Ġs ong",
      "Ġb urn",
      "Ġf elt",
      "Ġf ield",
      "Ġm iddle",
      "er chief",
      "Ġd inner",
      "Ġl en",
      "Ġl ady",
      "is ed",
      "is on",
      "Ġg oose",
      "or t",
      "Ġp ot",
      "im b",
      "ck ed",
      "Ġe x",
      "Ġst ret",
      "Ġst ones",
      "Ġfor g",
      "Ġca u",
      "Ġse a",
      "Ġch am",
      "il t",
      "Ġpr ay",
      "Ġgre en",
      "Ġro se",
      "Ġro yal",
      "Ġfe ar",
      "Ġfe et",
      "Ġstr aight",
      "ĠL ittle",
      "ĠF alada",
      "Ġsc ream",
      "Ġtre es",
      "tun e",
      "Ġenchant ress",
      "Ġtow er",
      "Ġvill age",
      "Ġlen gth",
      "B ut",
      "c t",
      "e v",
      "e ar",
      "g ain",
      "h ow",
      "i ous",
      "j oy",
      "m y",
      "o ll",
      "p s",
      "s he",
      "Ġt ask",
      "Ġa le",
      "Ġs ound",
      "Ġw ild",
      "Ġw icked",
      "in a",
      "Ġh our",
      "Ġh ang",
      "Ġb en",
      "Ġhe ld",
      "Ġo b",
      "Ġc ur",
      "Ġc ask",
      "Ġc ott",
      "Ġc ertain",
      "Ġf ly",
      "Ġm ount",
      "Ġl ock",
      "is s",
      "le en",
      "ar leen",
      "Ġbe ing",
      "Ġsa us",
      "Ġso ft",
      "Ġr ing",
      "ent y",
      "Ġan gry",
      "Ġbr o",
      "Ġbr oke",
      "ĠS ult",
      "Ġthere fore",
      "Ġsp oke",
      "Ġpr op",
      "Ġj our",
      "us ed",
      "Ġro lled",
      "Ġkn ife",
      "Ġbeg ged",
      "op e",
      "ak ing",
      "Ġcar ter",
      "ĠR ol",
      "ĠM arleen",
      "ĠL et",
      "Ġsay ing",
      "Ġho le",
      "Ġapple s",
      "Ġbrother s",
      "Ġri ver",
      "Ġfa ith",
      "Ġord ered",
      "Ġleg s",
      "Ġpleas ed",
      "ĠHow ever",
      "Ġel se",
      "Ġcomp an",
      "Ġswe et",
      "Ġcham ber",
      "Ġcott age",
      "ĠSult an",
      "ĠRol and",
      "E R",
      "i et",
      "m en",
      "p r",
      "Ġ ill",
      "Ġt ou",
      "Ġt er",
      "Ġs ang",
      "Ġs orrow",
      "Ġs ix",
      "Ġh id",
      "re l",
      "Ġb ones",
      "Ġf art",
      "Ġto wn",
      "Ġm id",
      "Ġm il",
      "at ion",
      "Ġd ir",
      "Ġl if",
      "Ġl am",
      "Ġth ie",
      "Ġp art",
      "Ġp ath",
      "Ġp resent",
      "Ġsa ck",
      "Ġsa ved",
      "ill ed",
      "st airs",
      "ĠI f",
      "Ġst ream",
      "Ġta l",
      "pp er",
      "al s",
      "Ġro ast",
      "Ġpe ar",
      "Ġpe ace",
      "ĠC urd",
      "au se",
      "ak er",
      "Ġhorse s",
      "Ġv ain",
      "Ġstr ange",
      "Ġwant s",
      "Ġthink ing",
      "Ġpiece s",
      "Ġfoll ow",
      "Ġsli pped",
      "Ġsad ly",
      "Ġquick ly",
      "Ġgrie ved",
      "Ġrobb ers",
      "Ġjour ney",
      "Ġfaith ful",
      "Ġfart her",
      "Ġlif ted",
      "ĠCurd ken",
      "I N",
      "N ever",
      "T here",
      "T his",
      "a ced",
      "c ing",
      "e ed",
      "e ese",
      "g hed",
      "m b",
      "m s",
      "o or",
      "p en",
      "t om",
      "Ġ You",
      "Ġt ast",
      "Ġt ried",
      "Ġa d",
      "in ess",
      "Ġh ur",
      "re ed",
      "Ġc ock",
      "Ġc up",
      "Ġc oun",
      "Ġf in",
      "Ġf ow",
      "Ġm om",
      "Ġm urd",
      "er ly",
      "Ġd ie",
      "Ġd ream",
      "Ġl au",
      "Ġth irst",
      "Ġg eese",
      "Ġp in",
      "Ġp ower",
      "Ġp ope",
      "Ġin n",
      "on t",
      "ĠT h",
      "Ġwh om",
      "ĠI ls",
      "Ġe s",
      "Ġe asy",
      "Ġst or",
      "Ġst uck",
      "ce ly",
      "ce ived",
      "Ġk id",
      "Ġca p",
      "Ġca ge",
      "Ġsh ook",
      "Ġme an",
      "ant ime",
      "ight ed",
      "pp ing",
      "Ġag reed",
      "ound ed",
      "Ġal ive",
      "ĠG od",
      "Ġab le",
      "Ġgr ow",
      "Ġother s",
      "Ġbo d",
      "Ġcom b",
      "ĠL ina",
      "Ġspr ing",
      "Ġcon s",
      "Ġdan cing",
      "Ġbec ome",
      "Ġar t",
      "Ġpick ed",
      "Ġbot tom",
      "dd en",
      "og el",
      "und ev",
      "Ġgiant s",
      "Ġple ase",
      "Ġwhe ther",
      "ab ill",
      "Ġcountry man",
      "Ġbar gain",
      "Ġte ars",
      "Ġhill s",
      "Ġcle ver",
      "Ġac c",
      "Ġlist en",
      "Ġbeast s",
      "Ġcry ing",
      "Ġsk in",
      "Ġra ven",
      "Ġsle pt",
      "Ġstret ched",
      "Ġthie ves",
      "Ġmom ent",
      "ĠIls abill",
      "undev ogel",
      "A nd",
      "A ll",
      "E L",
      "N ot",
      "W ith",
      "c l",
      "r ay",
      "Ġ ought",
      "he art",
      "Ġw ren",
      "Ġb ow",
      "Ġb ush",
      "Ġf ree",
      "Ġm us",
      "ll s",
      "Ġd ri",
      "Ġd read",
      "Ġth ous",
      "an ce",
      "Ġp ri",
      "Ġp ars",
      "Ġn or",
      "Ġn ice",
      "ar ter",
      "ar cely",
      "Ġha zel",
      "Ġbe er",
      "Ġsa l",
      "Ġshe ep",
      "Ġr age",
      "Ġe ars",
      "Ġst op",
      "Ġca ke",
      "ad ow",
      "ent ed",
      "Ġsh ort",
      "Ġup stairs",
      "ri age",
      "Ġme at",
      "Ġme adow",
      "Ġdo ing",
      "Ġdo ves",
      "ĠA ll",
      "ain s",
      "ind le",
      "Ġre f",
      "Ġre ally",
      "Ġch ick",
      "Ġli ps",
      "Ġsp in",
      "Ġsp indle",
      "Ġne w",
      "Ġal as",
      "Ġfr ont",
      "Ġde v",
      "Ġday s",
      "Ġtime s",
      "Ġdr op",
      "Ġdr ag",
      "ĠSo on",
      "Ġpl enty",
      "Ġcl imb",
      "Ġfe ather",
      "Ġstr uck",
      "Ġen joy",
      "Ġco st",
      "Ġmay or",
      "Ġsay s",
      "Ġsw all",
      "Ġrun ning",
      "Ġgl ad",
      "Ġwait ed",
      "Wh o",
      "Ġear ly",
      "Ġhands ome",
      "Ġservant s",
      "Ġword s",
      "Ġem pt",
      "Ġem per",
      "Ġord er",
      "Ġlist ened",
      "Ġneed le",
      "Ġcorn er",
      "Ġbran ches",
      "Ġrem ained",
      "Ġind eed",
      "Ġburn ing",
      "Ġcau ght",
      "Ġsaus age",
      "Ġdir ty",
      "Ġcoun sel",
      "Ġthous and",
      "Ġpars on",
      "Ġemper or",
      "D o",
      "G o",
      "e ath",
      "h ave",
      "m ing",
      "m orrow",
      "o st",
      "r ot",
      "v ent",
      "Ġa pr",
      "Ġs or",
      "Ġh arm",
      "Ġf u",
      "Ġto n",
      "Ġto morrow",
      "Ġm en",
      "Ġm on",
      "Ġm aking",
      "ed d",
      "ll ing",
      "Ġd ish",
      "Ġl ad",
      "as h",
      "Ġth ick",
      "Ġth ose",
      "Ġp aid",
      "Ġp ushed",
      "Ġin side",
      "Ġha y",
      "ve red",
      "oo p",
      "Ġu ne",
      "Ġr id",
      "im p",
      "Ġst om",
      "Ġst eak",
      "Ġst opped",
      "Ġfor tune",
      "Ġwe ar",
      "Ġsh ow",
      "ri ly",
      "Ġwill ing",
      "Ġwill ow",
      "Ġgo at",
      "ĠH oll",
      "ell ow",
      "Ġli ked",
      "Ġli ves",
      "ep t",
      "Ġpr o",
      "ave s",
      "Ġj ug",
      "Ġqu iet",
      "Ġsome one",
      "Ġdr ank",
      "Ġbeg in",
      "Ġsu ff",
      "Ġsu dden",
      "Ġpl aced",
      "ap e",
      "Ġeat ing",
      "Ġbo ar",
      "Ġlike wise",
      "Ġwo nder",
      "ĠM other",
      "Ġco at",
      "Ġwood man",
      "ĠF or",
      "ĠF undevogel",
      "Ġsc r",
      "Ġsw im",
      "ip e",
      "Ġbec ause",
      "Ġmo on",
      "Ġgarden er",
      "Ġsister s",
      "Ġwhe el",
      "Ġbar rel",
      "Ġac ro",
      "Ġbel ow",
      "Ġbre ak",
      "ĠJorind a",
      "ĠJorind el",
      "Ġnut s",
      "Ġhunts man",
      "Th ou",
      "Ġforg ot",
      "Ġben eath",
      "Ġbro ken",
      "Ġmil k",
      "Ġlau ghed",
      "Ġbod y",
      "Ġchick en",
      "Ġswall owed",
      "Ġapr on",
      "Ġstom ach",
      "ĠHoll e",
      "Ġacro ss",
      "C ome",
      "J ust",
      "P ray",
      "T hen",
      "T ake",
      "W ife",
      "c y",
      "c ome",
      "e e",
      "f ied",
      "m aker",
      "r oom",
      "Ġ U",
      "Ġs qu",
      "Ġw ar",
      "Ġw on",
      "Ġh ig",
      "Ġb ad",
      "Ġb ri",
      "Ġb us",
      "it ed",
      "Ġf ur",
      "Ġf iddle",
      "Ġto re",
      "Ġm ist",
      "Ġm ag",
      "er y",
      "at he",
      "Ġd ry",
      "Ġd ist",
      "Ġl az",
      "is fied",
      "Ġth ither",
      "Ġp re",
      "Ġp ur",
      "Ġp air",
      "ot h",
      "Ġy ellow",
      "ill y",
      "ill ow",
      "Ġst e",
      "Ġst re",
      "Ġst able",
      "ce nd",
      "Ġk ept",
      "Ġwith in",
      "Ġsh ore",
      "Ġsh ake",
      "Ġbut ter",
      "Ġat t",
      "Ġgo d",
      "Ġse ll",
      "Ġre j",
      "Ġch ain",
      "Ġch ang",
      "Ġsp o",
      "Ġsp ot",
      "Ġno body",
      "Ġwho se",
      "ĠW here",
      "Ġj ud",
      "Ġde al",
      "Ġwor ked",
      "Ġsee ing",
      "Ġtw ice",
      "Ġgr ant",
      "Ġgr ave",
      "am p",
      "Ġpl uck",
      "ble s",
      "Ġthr own",
      "Ġsat isfied",
      "Ġfl ow",
      "Ġfl ock",
      "Ġfl oor",
      "ĠM e",
      "Ġdaught ers",
      "Ġbet rot",
      "Ġpeasant s",
      "Ġmis s",
      "res h",
      "Ġar ms",
      "Ġsleep ing",
      "Ġcr o",
      "idd en",
      "Ġfall en",
      "Ġluck y",
      "Ġbu y",
      "Ġdes er",
      "Ġshoe maker",
      "Ġdress ed",
      "Ġpu lled",
      "ere r",
      "Ġhast e",
      "Ġprom ised",
      "Ġcertain ly",
      "Ġtou ched",
      "Ġpear ls",
      "Ġthirst y",
      "Ġes c",
      "Ġmus ic",
      "Ġclimb ed",
      "Ġchang ed",
      "Ġbetrot hed",
      "A R",
      "D ear",
      "E N",
      "H e",
      "T o",
      "T LE",
      "c ted",
      "d ay",
      "g ue",
      "i ge",
      "l er",
      "m ed",
      "m ost",
      "o nd",
      "o ic",
      "s h",
      "w e",
      "w h",
      "w ed",
      "w ood",
      "Ġ Q",
      "Ġ Ġ",
      "Ġ ve",
      "Ġw r",
      "Ġw and",
      "Ġw ings",
      "Ġw ounded",
      "Ġw edd",
      "Ġb it",
      "Ġb ought",
      "Ġf al",
      "Ġf illed",
      "at ched",
      "Ġl ake",
      "Ġl ord",
      "as c",
      "Ġg u",
      "id le",
      "Ġp ain",
      "Ġp ity",
      "Ġp illow",
      "Ġp ige",
      "le ver",
      "Ġin v",
      "Ġy ard",
      "Ġher d",
      "Ġit self",
      "Ġwh ist",
      "Ġr ide",
      "Ġst airs",
      "et s",
      "Ġk erchief",
      "Ġsh ar",
      "Ġbut t",
      "Ġme al",
      "Ġan im",
      "Ġta le",
      "Ġre p",
      "il ed",
      "ur ch",
      "Ġne st",
      "Ġpr ison",
      "Ġle ather",
      "Ġro pe",
      "Ġlook s",
      "Ġdr aught",
      "Ġpe cked",
      "Ġsu pp",
      "ĠC lever",
      "ap s",
      "Ġtake s",
      "Ġhead s",
      "Ġwat ched",
      "Ġbo x",
      "nder ne",
      "Ġcar riage",
      "Ġfl ame",
      "Ġus ed",
      "Ġcom for",
      "Ġco vered",
      "Ġhapp en",
      "Ġbeh ave",
      "Ġsc arcely",
      "ty ard",
      "end ed",
      "Ġhun g",
      "Ġhun ger",
      "Ġmo ve",
      "Ġhear ing",
      "Ġcour tyard",
      "Ġper ched",
      "Ġwhe els",
      "Ġfet ched",
      "Ġfa ire",
      "Ġbu ilt",
      "Ġbel ie",
      "Ġsli pper",
      "Ġplay ed",
      "ĠOn ce",
      "Ġhang ing",
      "Ġad v",
      "Ġfow ls",
      "Ġkid s",
      "Ġcake s",
      "Ġfeather s",
      "Ġempt y",
      "Ġune asy",
      "Ġswim ming",
      "ĠU nderne",
      "Ġbri ght",
      "Ġlaz y",
      "erer s",
      "Ġwedd ing",
      "Ġfal se",
      "ĠUnderne ath",
      "B r",
      "I T",
      "O W",
      "O pen",
      "Y our",
      "a ked",
      "a zed",
      "b ly",
      "c her",
      "e m",
      "e ad",
      "e ks",
      "g g",
      "g u",
      "g ar",
      "g room",
      "h aps",
      "i an",
      "i red",
      "k erchief",
      "l ow",
      "l ig",
      "m on",
      "o at",
      "t led",
      "u se",
      "u al",
      "v il",
      "z es",
      "Ġt ri",
      "Ġt un",
      "Ġs ight",
      "Ġs illy",
      "Ġw ide",
      "Ġw arm",
      "Ġw aves",
      "in s",
      "in ed",
      "Ġb itt",
      "Ġb orn",
      "Ġb ank",
      "ou red",
      "Ġhe ap",
      "Ġc ase",
      "Ġc ity",
      "Ġf am",
      "Ġm ice",
      "er ing",
      "at ch",
      "Ġd are",
      "as on",
      "Ġth re",
      "Ġth orn",
      "Ġg athe",
      "Ġp an",
      "Ġp ant",
      "Ġp ale",
      "ar ly",
      "Ġin s",
      "Ġin st",
      "Ġbe an",
      "Ġy es",
      "st one",
      "Ġr is",
      "Ġr ate",
      "Ġr amp",
      "Ġr asc",
      "Ġe gg",
      "Ġe vil",
      "Ġst ir",
      "Ġst ren",
      "Ġst oop",
      "ent ly",
      "Ġsh owed",
      "Ġgo es",
      "Ġse ar",
      "Ġbr ook",
      "Ġre me",
      "Ġre al",
      "Ġre qu",
      "Ġre ward",
      "Ġre ceived",
      "Ġre ason",
      "Ġch air",
      "Ġch urch",
      "Ġsp it",
      "Ġsp read",
      "ĠW ith",
      "Ġgre y",
      "ĠB e",
      "ĠB y",
      "Ġqu arter",
      "Ġal most",
      "Ġman ag",
      "Ġle ap",
      "Ġdr own",
      "Ġdr opped",
      "ĠG ood",
      "Ġpl ate",
      "Ġfo nd",
      "Ġhand kerchief",
      "Ġbeaut y",
      "Ġlo se",
      "Ġpo ison",
      "ue en",
      "Ġfl ies",
      "Ġus ual",
      "Ġevery one",
      "Ġbed s",
      "Ġco ach",
      "Ġknow s",
      "Ġknow ing",
      "Ġturn ip",
      "Ġsc old",
      "Ġcat ch",
      "Ġmis for",
      "Ġhun gry",
      "Ġbride groom",
      "Ġar ri",
      "Ġgl itt",
      "ĠE very",
      "ĠP resent",
      "Ġkne es",
      "Ġour selves",
      "Wh ither",
      "Ġfair ies",
      "Ġche st",
      "Ġbig ger",
      "ĠK ing",
      "Ġsit s",
      "Ġdis hes",
      "Ġhard ly",
      "Ġcre at",
      "Ġcle ar",
      "Ġstay ed",
      "up on",
      "Ġreturn ed",
      "Ġtrave lled",
      "Ġheaven s",
      "Ġdel ighted",
      "Ġscream ed",
      "Ġob lig",
      "Ġmount ains",
      "Ġlock s",
      "Ġcompan ion",
      "Ġsweet heart",
      "Ġter ri",
      "mb led",
      "Ġfin ished",
      "Ġmurd erers",
      "Ġsor ry",
      "Ġton gue",
      "Ġquiet ly",
      "Ġsuff er",
      "Ġhig her",
      "Ġstre et",
      "Ġrej oic",
      "Ġjud ge",
      "Ġflow ers",
      "Ġmusic ian",
      "ĠQ ueen",
      "Ġwhist led",
      "Ġbutt ons",
      "Ġprison er",
      "Ġflame s",
      "Ġcomfor ted",
      "Ġfaire st",
      "Ġtun e",
      "Ġgathe red",
      "Ġramp ion",
      "Ġstren gth",
      "ĠPresent ly",
      "Ġoblig ed",
      "A s",
      "E D",
      "H usband",
      "H ere",
      "I s",
      "L et",
      "N e",
      "R I",
      "S h",
      "S t",
      "T I",
      "V ery",
      "a f",
      "c he",
      "c ret",
      "e ven",
      "g o",
      "g ing",
      "g es",
      "i ers",
      "l i",
      "l ight",
      "l our",
      "n y",
      "n ight",
      "o c",
      "o ked",
      "r ist",
      "s y",
      "t en",
      "w here",
      "w een",
      "Ġ idle",
      "Ġs ought",
      "Ġs imp",
      "in ing",
      "âĢ Ŀ",
      "Ġh ar",
      "Ġh orn",
      "Ġh ath",
      "Ġh idden",
      "Ġb at",
      "Ġb ound",
      "Ġb ree",
      "Ġb ac",
      "ou b",
      "Ġo ven",
      "Ġc ord",
      "Ġc ool",
      "it s",
      "Ġf if",
      "Ġm ad",
      "Ġd en",
      "Ġd ar",
      "Ġd ain",
      "Ġd ang",
      "Ġl ocked",
      "ĠâĢ ľ",
      "Ġg all",
      "Ġg ift",
      "en se",
      "an ed",
      "or ing",
      "id es",
      "Ġp ay",
      "le nd",
      "ar ken",
      "Ġbe w",
      "Ġyou th",
      "Ġon es",
      "st y",
      "st er",
      "Ġr ue",
      "Ġr ipe",
      "Ġe ight",
      "Ġst ock",
      "Ġst ud",
      "Ġfor m",
      "Ġfor ward",
      "Ġk iss",
      "Ġsh ade",
      "Ġbut cher",
      "ri ous",
      "Ġme antime",
      "Ġdo ve",
      "ĠA way",
      "Ġan g",
      "Ġse cret",
      "ore d",
      "ĠH is",
      "Ġbr id",
      "Ġbr oth",
      "Ġta king",
      "Ġre s",
      "Ġre ach",
      "Ġch arm",
      "il ing",
      "il st",
      "un g",
      "un k",
      "th ough",
      "Ġsp ir",
      "Ġne igh",
      "al th",
      "ĠW ill",
      "Ġj am",
      "Ġde are",
      "Ġwhat ever",
      "Ġwor se",
      "Ġoff ered",
      "Ġhome wards",
      "Ġab ove",
      "Ġpe b",
      "Ġpe ep",
      "Ġgr own",
      "Ġgr ass",
      "Ġsu m",
      "Ġshould er",
      "Ġover t",
      "Ġcl ack",
      "ig n",
      "ig ned",
      "Ġthr ust",
      "Ġthr oat",
      "Ġbo at",
      "Ġbo on",
      "Ġbeautif ully",
      "Ġhorse men",
      "Ġv ent",
      "Ġansw er",
      "ĠM r",
      "ĠHe arken",
      "Ġhapp ily",
      "aw s",
      "Ġforest er",
      "Ġmill stone",
      "Ġspr ink",
      "ous ly",
      "Ġbet ween",
      "Ġwis dom",
      "Ġser ved",
      "Ġpass ing",
      "ĠE arly",
      "Ġun k",
      "Ġmer rily",
      "Ġmer cy",
      "Ġaw ak",
      "Ġye ar",
      "Ġear th",
      "Ġserv ice",
      "ĠJ ust",
      "Ġlar ger",
      "Ġper haps",
      "ab ly",
      "Ġcarry ing",
      "Ġsn oring",
      "Ġdis co",
      "ange st",
      "Ġgri nder",
      "Ġpig sty",
      "ff in",
      "pe cted",
      "Ġguest s",
      "Ġtrave lling",
      "Ġwall s",
      "ĠWh o",
      "ĠWh ile",
      "Ġhat che",
      "Ġbran ch",
      "Ġbur nt",
      "Ġprom ise",
      "Ġhunts men",
      "Be have",
      "Ġpray ed",
      "Ġscream ing",
      "Ġsoft ly",
      "Ġprop erly",
      "Ġcompan y",
      "Ġter r",
      "Ġmid st",
      "Ġlam ent",
      "Ġstor m",
      "Ġcons ented",
      "Ġref used",
      "Ġmon th",
      "Ġthick et",
      "Ġgod mother",
      "Ġpluck ed",
      "ĠMe antime",
      "ond s",
      "Ġshar p",
      "Ġanim als",
      "Ġadv ice",
      "Ġthorn s",
      "Ġinst ead",
      "ĠGood bye",
      "Ġpoison ed",
      "Ġscold ed",
      "Ġarri ved",
      "Ġhar ness",
      "Ġbree zes",
      "Ġbac on",
      "Ġfif th",
      "Ġstud ent",
      "Ġhatche t",
      "! âĢĶ",
      "B less",
      "C an",
      "E S",
      "H an",
      "I S",
      "S ee",
      "T ell",
      "U S",
      "a ven",
      "a pped",
      "b re",
      "b es",
      "b our",
      "c er",
      "g ly",
      "i ble",
      "m ent",
      "m and",
      "n oun",
      "o le",
      "p ered",
      "r ince",
      "u ed",
      "u el",
      "Ġ (",
      "Ġ Your",
      "Ġa st",
      "Ġs us",
      "Ġs ince",
      "in t",
      "Ġh it",
      "Ġh one",
      "Ġh ither",
      "Ġh oney",
      "Ġb le",
      "Ġb ir",
      "ou l",
      "Ġo dd",
      "Ġc e",
      "Ġc u",
      "Ġc row",
      "Ġf ate",
      "Ġf ix",
      "Ġf resh",
      "Ġto day",
      "Ġm ile",
      "Ġd ared",
      "Ġd ale",
      "ing ly",
      "as ily",
      "is it",
      "Ġg azed",
      "en ced",
      "Ġp en",
      "Ġp ar",
      "Ġp aws",
      "ow s",
      "Ġn one",
      "Ġn ail",
      "Ġin t",
      "on y",
      "Ġbe f",
      "Ġbe side",
      "Ġsa ve",
      "Ġsa ke",
      "ĠT O",
      "Ġu nd",
      "Ġu gly",
      "st and",
      "Ġas ide",
      "ir t",
      "Ġwh is",
      "Ġwh ir",
      "im ney",
      "ck s",
      "Ġe ase",
      "Ġe asily",
      "Ġst ri",
      "Ġst art",
      "Ġst rew",
      "Ġst ole",
      "et h",
      "Ġwe ak",
      "ad ly",
      "if ic",
      "if ied",
      "Ġsh op",
      "Ġsh ab",
      "Ġsh ining",
      "Ġall owed",
      "ood le",
      "ri ar",
      "ri ve",
      "ri es",
      "ĠA n",
      "Ġan noun",
      "lf illed",
      "Ġse vent",
      "Ġwhen ever",
      "ĠS adly",
      "Ġre ad",
      "Ġre igned",
      "Ġch ange",
      "Ġch oked",
      "Ġch imney",
      "ard s",
      "ur tle",
      "Ġsp un",
      "Ġsp lend",
      "Ġne are",
      "Ġno on",
      "Ġno se",
      "Ġgre ed",
      "Ġj e",
      "Ġj o",
      "Ġj oke",
      "Ġj og",
      "ss ed",
      "ĠB riar",
      "Ġti ed",
      "Ġal ighted",
      "Ġal though",
      "Ġro gu",
      "Ġday bre",
      "ie st",
      "Ġkn ock",
      "ĠG old",
      "Ġtw ig",
      "op ed",
      "Ġgreat est",
      "Ġpl ant",
      "Ġother wise",
      "Ġtr ough",
      "Ġthr one",
      "Ġget ting",
      "Ġnow here",
      "ic orn",
      "Ġwo nd",
      "Ġv isit",
      "ĠR ose",
      "Ġset tled",
      "Ġstr oke",
      "Ġcom r",
      "Ġco ll",
      "Ġco ld",
      "Ġco al",
      "aught er",
      "ĠL IT",
      "ag es",
      "ag ue",
      "ate ly",
      "Ġheart ily",
      "Ġsho ot",
      "Ġcow s",
      "Ġcook ed",
      "Ġfast er",
      "Ġfind ing",
      "Ġwis hing",
      "Ġhun ting",
      "Ġar ound",
      "Ġtell ing",
      "Ġcare fully",
      "Ġcr uel",
      "Ġun icorn",
      "Ġdog s",
      "dd ed",
      "dd le",
      "Ġaw ake",
      "Ġdear ly",
      "Ġear n",
      "Ġhear th",
      "Ġke y",
      "Ġper for",
      "Ġclot h",
      "Ġkind ly",
      "Ġseem s",
      "Ġte eth",
      "Ġsold iers",
      "Ġsure ly",
      "Ġdes cend",
      "Ġname s",
      "Ġlove l",
      "Ġwalk ing",
      "Ġent ered",
      "Ġaf ar",
      "Ġpleas ant",
      "ott en",
      "Ġstep s",
      "Ġweep ing",
      "Ġgrie f",
      "ac ious",
      "Ġsle e",
      "Ġind ust",
      "Ġbur y",
      "Ġbur st",
      "Ġloud ly",
      "Ġcont in",
      "ĠD ame",
      "Ġfield s",
      "Ġforg otten",
      "Ġgreen wood",
      "Ġfly ing",
      "Ġhid ing",
      "Ġmid night",
      "Ġpresent s",
      "Ġfollow ing",
      "Ġtast e",
      "Ġtast ed",
      "Ġhur t",
      "ĠTh us",
      "Ġstor y",
      "Ġmean ing",
      "cl ock",
      "Ġbow l",
      "Ġdri ving",
      "Ġsal ad",
      "Ġdev our",
      "Ġdev oured",
      "Ġfu lfilled",
      "Ġpro v",
      "Ġsudden ly",
      "Ġscr atched",
      "Ġchicken s",
      "Ġfur ther",
      "Ġmag ic",
      "Ġmiss ing",
      "Ġesc ape",
      "Ġpige on",
      "Ġinv ited",
      "Ġbelie ved",
      "Ġbitt erly",
      "Ġstoop ed",
      "ĠBe fore",
      "Ġquarter s",
      "Ġmanag ed",
      "Ġleap t",
      "Ġdrown ed",
      "Ġmisfor tune",
      "Ġcreat ure",
      "Ġterri bly",
      "Sh ake",
      "Ġdar ling",
      "Ġdain ty",
      "Ġbrid ge",
      "Ġneigh bour",
      "Ġdeare st",
      "Ġpeb bles",
      "Ġpeep ed",
      "Ġsprink led",
      "Ġterr ified",
      "Ġast on",
      "Ġhone st",
      "Ġshab by",
      "Ġannoun ced",
      "Ġsevent h",
      "Ġneare r",
      "Ġjog ged",
      "Ġdaybre ak",
      "ĠLIT TLE",
      "> ?âĢĻ",
      "B ird",
      "F rederick",
      "H ark",
      "H AN",
      "I n",
      "K ate",
      "L T",
      "L ittle",
      "L ook",
      "M other",
      "N ay",
      "O L",
      "O O",
      "R apunzel",
      "S he",
      "S ome",
      "U M",
      "U N",
      "W ill",
      "W hen",
      "a pp",
      "b l",
      "b s",
      "b ony",
      "c le",
      "d ge",
      "d aughter",
      "e k",
      "e ared",
      "h ood",
      "i am",
      "l uck",
      "l ted",
      "m ith",
      "m ber",
      "n own",
      "n ific",
      "p ing",
      "p le",
      "r n",
      "r u",
      "r ing",
      "s er",
      "s mith",
      "t ime",
      "u it",
      "v our",
      "w l",
      "w o",
      "w ill",
      "w els",
      "z e",
      "Ġ ed",
      "Ġ ir",
      "Ġs me",
      "Ġs ir",
      "Ġs ch",
      "Ġs ul",
      "Ġs oul",
      "Ġw in",
      "Ġb id",
      "Ġb ent",
      "Ġb ade",
      "Ġb less",
      "Ġb aker",
      "Ġhe els",
      "Ġhe dge",
      "Ġo pp",
      "Ġo wl",
      "Ġc ust",
      "it al",
      "it ion",
      "Ġf ill",
      "Ġf ight",
      "Ġf arm",
      "Ġf ive",
      "Ġto rn",
      "Ġm our",
      "ll y",
      "at i",
      "âĢĻ :",
      "Ġd et",
      "Ġd ire",
      "Ġd aw",
      "Ġd ug",
      "Ġd oub",
      "Ġd iam",
      "Ġl id",
      "Ġl ace",
      "Ġl ate",
      "Ġl ift",
      "ing ale",
      "as ure",
      "Ġg ay",
      "Ġg ent",
      "Ġg ird",
      "Ġg ame",
      "Ġg az",
      "or bes",
      "Ġp it",
      "Ġp un",
      "Ġp ull",
      "Ġp ail",
      "Ġbe es",
      "Ġsa ddle",
      "Ġof ten",
      "Ġher o",
      "Ġwas h",
      "Ġwas hing",
      "ĠT o",
      "Ġu r",
      "Ġr ather",
      "Ġr ough",
      "Ġr ic",
      "Ġr ag",
      "Ġe bony",
      "Ġst ick",
      "Ġst ove",
      "Ġwe ather",
      "ce ed",
      "Ġca used",
      "Ġca ges",
      "Ġsh ot",
      "Ġsh one",
      "Ġsh ame",
      "Ġan t",
      "Ġan x",
      "Ġan ts",
      "Ġse ed",
      "Ġse at",
      "Ġse wed",
      "el ier",
      "ĠH er",
      "ĠH OW",
      "Ġbr own",
      "Ġbr aid",
      "Ġta ll",
      "ĠS c",
      "ĠS t",
      "ĠS aid",
      "Ġch at",
      "Ġch and",
      "Ġch oose",
      "Ġch rist",
      "ur ing",
      "ell ing",
      "Ġli ving",
      "Ġsp ite",
      "Ġsp ark",
      "Ġne ither",
      "ep ing",
      "Ġag o",
      "ven ge",
      "Ġal arm",
      "Ġfr ock",
      "Ġde er",
      "Ġde cl",
      "Ġle st",
      "Ġle ad",
      "Ġle ast",
      "Ġro b",
      "Ġro am",
      "Ġro sy",
      "Ġro cks",
      "Ġwor n",
      "Ġwor th",
      "ack ed",
      "Ġday light",
      "Ġkn own",
      "Ġsee k",
      "Ġgood bye",
      "Ġgr ain",
      "Ġsu pper",
      "am b",
      "Ġshould ers",
      "Ġpl an",
      "Ġpl ank",
      "os ed",
      "Ġover come",
      "Ġcl ick",
      "Ġcl ock",
      "Ġcl um",
      "Ġcl aw",
      "ap ed",
      "Ġtr ust",
      "Ġtr unk",
      "ig hed",
      "ine gar",
      "Ġgold smith",
      "Ġthr ush",
      "Ġfe w",
      "Ġfe ed",
      "Ġget s",
      "Ġbo ld",
      "Ġbo iling",
      "Ġlo ad",
      "Ġlo ss",
      "Ġlo ft",
      "Ġpo ss",
      "Ġlike ly",
      "Ġhorse man",
      "Ġbl ind",
      "Ġv al",
      "Ġv inegar",
      "Ġthan k",
      "ĠM O",
      "Ġstr ong",
      "Ġstr ang",
      "Ġen v",
      "Ġevery where",
      "ĠHe re",
      "Ġcom pl",
      "Ġco nd",
      "Ġco als",
      "Ġhapp iness",
      "Ġwood s",
      "Ġwood en",
      "aw led",
      "ĠL ife",
      "Ġnight ingale",
      "Ġgir ls",
      "Ġsc iss",
      "Ġho pped",
      "Ġapp ro",
      "Ġwa res",
      "Ġmis chief",
      "Ġunder stand",
      "Ġcon cer",
      "Ġsing le",
      "Ġwis er",
      "Ġser ve",
      "Ġgl oom",
      "Ġpass ion",
      "ĠP AR",
      "ĠP rince",
      "Ġcr own",
      "Ġcr umb",
      "Ġun less",
      "Ġlight ed",
      "Ġlight ning",
      "ĠThere upon",
      "Ġleave s",
      "Ġche eks",
      "Ġsm art",
      "Ġsil k",
      "Ġsil ken",
      "Ġpret t",
      "Ġstand s",
      "Ġhelp ed",
      "Ġper ceived",
      "Ġfis hes",
      "Ġmar ble",
      "ĠK orbes",
      "Ġfriend s",
      "Ġfa vour",
      "Ġkind ness",
      "Ġkeep ing",
      "Ġte ar",
      "Ġtre mbled",
      "Ġmiser able",
      "Ġduck s",
      "Ġclose t",
      "Ġbel ong",
      "Ġfing ers",
      "pe ct",
      "Ġent ire",
      "Ġwret ched",
      "Ġsmall er",
      "the y",
      "the less",
      "Ġsk y",
      "Ġmouth ful",
      "Ġpu dd",
      "Ġstep mother",
      "Ġstep daughter",
      "ĠWh ilst",
      "Ġhast ened",
      "Ġsafe ly",
      "Ġdeep er",
      "Ġwatch ing",
      "Ġdel ight",
      "Ġcont rive",
      "AN S",
      "Ġex c",
      "ct ly",
      "Ġob ser",
      "Ġcur l",
      "Ġbro ad",
      "Ġtou ch",
      "Ġsorrow ful",
      "Ġpart ed",
      "Ġpresent ly",
      "Ġtal k",
      "Ġtal ers",
      "Ġhur ry",
      "Ġinn oc",
      "Ġmean s",
      "Ġacc ount",
      "Ġacc ord",
      "Ġraven s",
      "Ġwren s",
      "Ġpri cked",
      "Ġsal t",
      "Ġdrag ged",
      "Ġthousand s",
      "Ġmon ster",
      "Ġwear y",
      "Ġwilling ly",
      "Ġbus iness",
      "Ġmist ress",
      "Ġmag nific",
      "Ġdist ance",
      "Ġpur se",
      "Ġstable s",
      "Ġgrant ed",
      "Ġmiss ed",
      "Ġesc aped",
      "ĠĠ Ġ",
      "Ġve x",
      "Ġwr ong",
      "Ġwand ered",
      "Ġsupp ose",
      "Br ide",
      "em pt",
      "mon ed",
      "Ġtri ck",
      "Ġthre at",
      "Ġrasc al",
      "Ġreme mber",
      "Ġrequ est",
      "Ġrejoic ed",
      "Ne ither",
      "Ġbat tle",
      "Ġdang er",
      "Ġbew ail",
      "Ġres pect",
      "Ġsum moned",
      "Ġovert ook",
      "Ġvent ure",
      "Ġunk nown",
      "Ġdisco ver",
      "Han sel",
      "Ġbir th",
      "Ġfix ed",
      "Ġmile s",
      "Ġpen ny",
      "Ġpar lour",
      "Ġwhis pered",
      "Ġwhir l",
      "Ġstri ke",
      "Ġstart ed",
      "Ġsplend id",
      "Ġje wels",
      "Ġjo b",
      "Ġplant ed",
      "Ġwond ered",
      "Ġcoll ar",
      "Ġperfor m",
      "Ġlovel ier",
      "Ġslee ve",
      "Ġaston ished",
      "luck y",
      "Ġed ge",
      "Ġir on",
      "Ġsul k",
      "Ġwin ter",
      "Ġcust om",
      "Ġdoub t",
      "Ġdiam onds",
      "Ġgent le",
      "Ġgird le",
      "Ġchand elier",
      "Ġsciss or",
      "! âĢĿ",
      "A T",
      "A ND",
      "B low",
      "C K",
      "C LE",
      "C arter",
      "D on",
      "E E",
      "E M",
      "F ine",
      "F alada",
      "G et",
      "G ave",
      "H a",
      "I P",
      "I R",
      "K IN",
      "L ist",
      "O G",
      "O ne",
      "R IN",
      "S o",
      "S to",
      "S TI",
      "S even",
      "S KIN",
      "T ook",
      "T op",
      "T urn",
      "T EL",
      "U n",
      "V ER",
      "a j",
      "a it",
      "a ily",
      "a res",
      "a by",
      "a pping",
      "b r",
      "c c",
      "c i",
      "c ious",
      "c ause",
      "c ceed",
      "d o",
      "d er",
      "e el",
      "e my",
      "f ather",
      "h old",
      "h app",
      "i ol",
      "i ately",
      "j ur",
      "k in",
      "l ord",
      "l ks",
      "m pt",
      "m iss",
      "m ined",
      "n o",
      "n ers",
      "o ved",
      "o ons",
      "p ic",
      "r om",
      "t ly",
      "t here",
      "t ered",
      "t ake",
      "u red",
      "w hen",
      "w ith",
      "x en",
      "y the",
      "Ġ V",
      "Ġ im",
      "Ġ ide",
      "Ġ No",
      "Ġ Never",
      "Ġ Not",
      "he l",
      "Ġt en",
      "Ġt urtle",
      "Ġa im",
      "Ġs ly",
      "Ġs ur",
      "Ġs ick",
      "Ġs ort",
      "Ġs ense",
      "Ġs ides",
      "Ġs ign",
      "Ġw ad",
      "Ġh on",
      "Ġh ut",
      "Ġh ind",
      "Ġh ide",
      "Ġh angest",
      "Ġh oped",
      "re ly",
      "Ġb er",
      "Ġb ind",
      "Ġb ough",
      "Ġb ake",
      "Ġb aby",
      "Ġhe at",
      "Ġhe ir",
      "Ġhe alth",
      "Ġo cc",
      "Ġo xen",
      "Ġc ou",
      "Ġc ir",
      "Ġf an",
      "Ġf ount",
      "Ġf ier",
      "Ġf ool",
      "Ġto es",
      "Ġto ssed",
      "Ġm ine",
      "Ġm orrow",
      "Ġm aj",
      "ed l",
      "er day",
      "er mined",
      "at es",
      "at tered",
      "Ġd im",
      "Ġd ep",
      "Ġd ig",
      "Ġd uring",
      "Ġl in",
      "Ġl ap",
      "Ġl air",
      "Ġl ess",
      "Ġl ump",
      "ing er",
      "as ses",
      "is k",
      "is ion",
      "Ġth ri",
      "Ġth read",
      "Ġth ief",
      "Ġth resh",
      "Ġg n",
      "Ġg ar",
      "Ġg if",
      "Ġg angest",
      "en ing",
      "an ced",
      "an wh",
      "or ch",
      "Ġp ard",
      "Ġp ace",
      "Ġp ier",
      "Ġp itch",
      "Ġp oodle",
      "Ġp edl",
      "Ġn i",
      "Ġn ast",
      "Ġn ur",
      "Ġn igh",
      "Ġn imb",
      "ar ing",
      "Ġin qu",
      "Ġin jur",
      "ot s",
      "Ġha ck",
      "Ġbe s",
      "Ġbe am",
      "Ġbe lls",
      "Ġbe lly",
      "Ġsa ving",
      "Ġy est",
      "ut h",
      "ut ter",
      "Ġshe ll",
      "Ġshe lf",
      "Ġwas hed",
      "ĠT ill",
      "ĠT ree",
      "ĠT wo",
      "se t",
      "se mbled",
      "oo ls",
      "Ġas cend",
      "Ġas sembled",
      "Ġwh u",
      "ver al",
      "Ġr ow",
      "Ġr ain",
      "Ġr ap",
      "Ġr ise",
      "Ġr ushed",
      "ĠI N",
      "ĠI s",
      "Ġe qu",
      "Ġe ag",
      "Ġst ars",
      "Ġst ol",
      "Ġfor ce",
      "Ġfor get",
      "Ġfor tun",
      "et tle",
      "Ġwe eks",
      "Ġwe alth",
      "ce ive",
      "Ġk icked",
      "Ġk ettle",
      "ch in",
      "Ġca lling",
      "Ġsh out",
      "Ġsh ape",
      "Ġbut ler",
      "om p",
      "Ġme et",
      "itt ed",
      "es ides",
      "ĠA re",
      "ĠA pp",
      "ĠA las",
      "Ġan ger",
      "Ġse nd",
      "Ġse es",
      "Ġse ated",
      "Ġse ash",
      "Ġse veral",
      "ant ly",
      "ĠH ave",
      "ĠH ANS",
      "Ġwhen ce",
      "Ġbr ush",
      "Ġbr isk",
      "Ġta p",
      "ĠS und",
      "Ġre c",
      "Ġre l",
      "Ġre venge",
      "ter s",
      "Ġch airs",
      "il s",
      "all en",
      "ur red",
      "Ġli es",
      "Ġli ber",
      "pp ers",
      "Ġsp ace",
      "Ġne at",
      "al oons",
      "Ġno ble",
      "Ġwho ever",
      "ĠW e",
      "ĠW ell",
      "Ġpr oud",
      "Ġking s",
      "Ġgre ase",
      "Ġj ack",
      "ĠB low",
      "Ġti es",
      "ul ted",
      "Ġwhi p",
      "Ġal oud",
      "Ġman ner",
      "Ġfr uit",
      "Ġde ed",
      "Ġle ar",
      "Ġle ague",
      "ĠG R",
      "Ġpe ck",
      "Ġtw enty",
      "Ġgr oom",
      "Ġgr acious",
      "Ġsu it",
      "Ġsu ited",
      "Ġsu gar",
      "Ġsu cceed",
      "am ed",
      "Ġam id",
      "Ġgreat er",
      "Ġgreat ly",
      "Ġpl ump",
      "Ġpl ates",
      "Ġover joy",
      "ĠC LE",
      "ĠC HAN",
      "Ġcl atter",
      "Ġcl osed",
      "ake s",
      "Ġdoor s",
      "Ġhouse hold",
      "Ġtr ot",
      "Ġtr ap",
      "Ġtr ump",
      "Ġtr oop",
      "Ġtr uth",
      "Ġfo am",
      "Ġfo lks",
      "Ġbea k",
      "Ġhand ful",
      "Ġwhere ver",
      "Ġput s",
      "Ġbo ast",
      "Ġlo aves",
      "Ġlo af",
      "Ġpo nd",
      "Ġpo int",
      "ic ed",
      "Ġbl ue",
      "Ġv ag",
      "Ġv iol",
      "ĠR UM",
      "Ġset ting",
      "Ġfl own",
      "Ġstr ing",
      "Ġen emy",
      "Ġlet ting",
      "Ġlet ters",
      "Ġevery body",
      "Ġcom mand",
      "Ġco ver",
      "Ġco ffin",
      "um bles",
      "Ġson s",
      "Ġmight y",
      "ĠL inger",
      "Ġbeh old",
      "ĠO f",
      "ĠO h",
      "ĠO pen",
      "Ġturn ing",
      "Ġsc ent",
      "Ġsc ythe",
      "Ġsc attered",
      "Ġfle e",
      "Ġsw am",
      "Ġsw ord",
      "Ġwork sh",
      "ip s",
      "Ġcook ing",
      "Ġfast ened",
      "Ġapp eared",
      "Ġfire pl",
      "Ġcon f",
      "est y",
      "led ge",
      "Ġwindow s",
      "Ġwis e",
      "Ġwis hes",
      "res ses",
      "Ġar r",
      "Ġar row",
      "Ġar ose",
      "Ġgl asses",
      "ress ed",
      "Ġpick ing",
      "ĠP oor",
      "Ġcr ushed",
      "Ġcr awled",
      "Ġdw elt",
      "Ġdw elling",
      "Ġbot tle",
      "Ġun b",
      "Ġun able",
      "Ġun will",
      "Ġun happ",
      "Ġtable t",
      "Ġroom s",
      "Ġlight s",
      "Ġlight heart",
      "Ġche er",
      "ĠJ O",
      "Ġsil very",
      "Ġhear se",
      "Ġpret end",
      "Ġpret ended",
      "Ġlive li",
      "Ġfall ing",
      "Ġgrand father",
      "Ġmar ry",
      "Ġmar riage",
      "Ġdrink ing",
      "Ġrest ed",
      "Ġfriend ly",
      "so l",
      "Ġkind s",
      "Ġte nder",
      "Ġte mpt",
      "Ġsn ug",
      "Ġsn ored",
      "Ġdis p",
      "Ġdis miss",
      "Ġland lord",
      "Ġmiser y",
      "Ġmiser ably",
      "Ġbu ried",
      "Ġcre eping",
      "Ġcle an",
      "Ġsent enced",
      "Ġmind s",
      "Ġsli ppers",
      "Ġdes ire",
      "Ġask s",
      "Ġfeel ing",
      "tain s",
      "Ġlove ly",
      "Ġpocket s",
      "Ġent er",
      "Ġent ice",
      "Ġbre ast",
      "Ġbre ath",
      "Ġnear ly",
      "Ġplay ing",
      "Ġenchant ed",
      "Ġsk i",
      "Ġamong st",
      "Ġtrave l",
      "Ġtrave ll",
      "Ġthrow ing",
      "ons ense",
      "Ġra ised",
      "Ġtrouble s",
      "ac tly",
      "Ġrem ain",
      "Ġspeak ing",
      "umb ling",
      "per ing",
      "Ġdel ic",
      "Ġcont ented",
      "Ġex actly",
      "Ġstret ch",
      "ct ion",
      "Ġsound ly",
      "Ġben ches",
      "Ġcur ling",
      "Ġmount ain",
      "Ġsaus ages",
      "Ġprop os",
      "Ġhole s",
      "iet y",
      "Ġsorrow fully",
      "ation s",
      "Ġsack s",
      "Ġtal king",
      "IN G",
      "mb ered",
      "Ġfin ish",
      "Ġfow l",
      "Ġmurd er",
      "Ġpin ched",
      "Ġinn s",
      "ĠTh umb",
      "Ġes p",
      "Ġcap ital",
      "Ġgrow s",
      "Ġgrow ing",
      "Ġacc used",
      "Ġlisten ing",
      "Ġdri ven",
      "Ġdread ful",
      "Ġdread fully",
      "Ġpri ce",
      "Ġref use",
      "Ġspin ning",
      "Ġdrop s",
      "Ġdrag ging",
      "Ġcost ly",
      "Ġsor ts",
      "Ġfu el",
      "Ġton ight",
      "Ġlad ies",
      "Ġlad der",
      "Ġbegin ning",
      "Ġwonder ful",
      "ee zed",
      "Ġsqu ire",
      "Ġsqu eezed",
      "Ġbus hes",
      "Ġdist ress",
      "Ġpre p",
      "Ġpre vent",
      "Ġste al",
      "Ġste pped",
      "Ġatt end",
      "Ġatt empt",
      "Ġspo on",
      "ĠMe anwh",
      "Ġcro ss",
      "Ġcro aked",
      "Ġdeser ves",
      "EN T",
      "He aven",
      "TLE T",
      "med iately",
      "wh y",
      "Ġwr apped",
      "Ġgu ards",
      "Ġpige ons",
      "Ġleather n",
      "Ġbelie ve",
      "Ġpant aloons",
      "Ġbean s",
      "Ġris ing",
      "Ġris en",
      "Ġstir red",
      "Ġsear ch",
      "Ġsear ched",
      "Ġreme mbered",
      "Ġturnip s",
      "Ġglitt ered",
      "Ġglitt ering",
      "ĠEvery thing",
      "Ġrejoic ing",
      "TI CLE",
      "li ke",
      "Ġsimp le",
      "Ġsimp let",
      "Ġgall ows",
      "Ġang els",
      "Ġspir it",
      "Ġspir its",
      "Ġawak en",
      "Ġawak ened",
      "Ġharness ed",
      "Ġsus pic",
      "Ġble w",
      "Ġcrow d",
      "Ġdale s",
      "Ġstrew ed",
      "Ġknock ing",
      "Ġcomr ade",
      "Ġindust rious",
      "Ġcontin ued",
      "LT SKIN",
      "Ġsch ool",
      "Ġfarm er",
      "Ġdet ermined",
      "Ġdire ctly",
      "Ġur chin",
      "Ġric hes",
      "Ġstick s",
      "Ġanx iety",
      "Ġbraid s",
      "ĠSc arcely",
      "Ġchrist ening",
      "Ġalarm ed",
      "Ġdecl ared",
      "Ġrob ber",
      "Ġbold ly",
      "Ġposs ible",
      "Ġthank ful",
      "Ġstrang ers",
      "Ġcompl ained",
      "Ġunderstand ing",
      "Ġgloom y",
      "ĠPAR TLET",
      "Ġcrumb s",
      "Ġbelong ed",
      "Ġaccord ing",
      "Ġvex ed",
      "Ġthreat ened",
      "Ġscissor s",
      "List en",
      "Sto p",
      "STI LTSKIN",
      "Un lucky",
      "Ġide a",
      "ĠNever theless",
      "Ġsly ly",
      "Ġwad d",
      "Ġhon our",
      "Ġber ries",
      "Ġocc urred",
      "Ġcir cle",
      "Ġfan c",
      "Ġfount ain",
      "Ġmaj esty",
      "Ġthresh old",
      "Ġgif ts",
      "Ġpard on",
      "Ġpier ced",
      "Ġnast y",
      "Ġnur se",
      "Ġnimb ly",
      "Ġinqu ired",
      "Ġinjur y",
      "Ġyest erday",
      "Ġstol en",
      "ĠApp le",
      "Ġseash ore",
      "ĠSund ay",
      "Ġliber ty",
      "Ġoverjoy ed",
      "ĠCLE VER",
      "ĠCHAN TICLE",
      "Ġvag ab",
      "Ġviol ent",
      "ĠRUM P",
      "Ġworksh op",
      "Ġfirepl ace",
      "Ġunhapp y",
      "Ġlightheart ed",
      "Ġliveli hood",
      "ĠMeanwh ile",
      "ĠCHANTICLE ER",
      ") ,",
      "> ,",
      "? âĢĶ",
      "A K",
      "A L",
      "A P",
      "A S",
      "A l",
      "A re",
      "B ack",
      "B oy",
      "C H",
      "C l",
      "C ock",
      "E G",
      "E V",
      "E lsie",
      "E TEL",
      "F or",
      "F ather",
      "F irst",
      "F ool",
      "F undevogel",
      "H ither",
      "I D",
      "I L",
      "I ED",
      "J ip",
      "L D",
      "L ie",
      "L ift",
      "M ad",
      "M aster",
      "O R",
      "O n",
      "O ld",
      "P ut",
      "R A",
      "R un",
      "R ound",
      "R OO",
      "S E",
      "S H",
      "T HE",
      "U R",
      "U T",
      "W ait",
      "a v",
      "a ved",
      "a ft",
      "a ffin",
      "b e",
      "b o",
      "b ed",
      "b ing",
      "b ird",
      "b ack",
      "b ble",
      "b go",
      "c ase",
      "c ure",
      "d ging",
      "e f",
      "e as",
      "e ent",
      "e ction",
      "f l",
      "f it",
      "g ay",
      "g ers",
      "h all",
      "i ar",
      "i ver",
      "i ke",
      "i ant",
      "i al",
      "i ze",
      "j ection",
      "k ind",
      "l t",
      "l id",
      "l ter",
      "l and",
      "l ack",
      "l ace",
      "l come",
      "m er",
      "m ore",
      "m ark",
      "n a",
      "n ets",
      "o ak",
      "o nder",
      "o pping",
      "o aned",
      "p ent",
      "p ick",
      "p air",
      "p iece",
      "r r",
      "r on",
      "r aw",
      "r umb",
      "r ounded",
      "s u",
      "s ay",
      "s ick",
      "s ily",
      "s ation",
      "t w",
      "t ell",
      "t ap",
      "u b",
      "u me",
      "u ght",
      "u nder",
      "u man",
      "u res",
      "u dd",
      "u ally",
      "u dden",
      "w are",
      "Ġ N",
      "Ġ imp",
      "Ġ Ne",
      "he ld",
      "he st",
      "he cy",
      "Ġt id",
      "Ġt read",
      "Ġt ilt",
      "Ġt iled",
      "Ġt resses",
      "Ġa dd",
      "Ġa dded",
      "Ġs in",
      "Ġs igh",
      "Ġs ank",
      "Ġs inner",
      "Ġs ighed",
      "Ġw et",
      "Ġw ore",
      "Ġw ag",
      "Ġw ipe",
      "Ġw ages",
      "nd s",
      "nd le",
      "in ut",
      "in ated",
      "in ation",
      "Ġh ot",
      "Ġh ook",
      "Ġh ick",
      "Ġh um",
      "Ġh ug",
      "Ġh ated",
      "Ġh ope",
      "Ġh uman",
      "re at",
      "re nt",
      "Ġb ore",
      "Ġb one",
      "Ġb ite",
      "Ġb os",
      "Ġb uck",
      "Ġb ars",
      "Ġb ask",
      "Ġb urd",
      "Ġb ounded",
      "Ġb aked",
      "Ġb ung",
      "ou ghed",
      "Ġhe n",
      "Ġhe ated",
      "Ġo ak",
      "Ġc ind",
      "Ġc ous",
      "Ġc ries",
      "it ched",
      "Ġf ir",
      "Ġf un",
      "Ġf ry",
      "Ġf urn",
      "Ġf ully",
      "Ġf ift",
      "Ġf ools",
      "Ġf itted",
      "Ġto e",
      "Ġto ken",
      "Ġm or",
      "Ġm ot",
      "Ġm ast",
      "Ġm al",
      "Ġm ock",
      "Ġm ass",
      "Ġm utt",
      "Ġm edd",
      "Ġm atch",
      "Ġm inut",
      "er t",
      "er ry",
      "er rily",
      "at er",
      "at ing",
      "at tled",
      "Ġd oo",
      "Ġd if",
      "Ġd un",
      "Ġd art",
      "Ġd ough",
      "Ġd ouble",
      "Ġd ived",
      "Ġd oodle",
      "Ġd aily",
      "Ġl ent",
      "Ġl one",
      "Ġl ack",
      "Ġl imp",
      "Ġl atch",
      "Ġl ater",
      "ing ling",
      "as ing",
      "as ping",
      "is ure",
      "is ible",
      "Ġth in",
      "Ġth ine",
      "Ġth umb",
      "Ġth irt",
      "Ġth under",
      "Ġg ain",
      "Ġg own",
      "Ġg ather",
      "Ġg ently",
      "Ġg asping",
      "en chant",
      "en gers",
      "an s",
      "an y",
      "an na",
      "or m",
      "or ted",
      "or tun",
      "or ins",
      "id er",
      "id ing",
      "id ent",
      "Ġp el",
      "Ġp ite",
      "Ġp ink",
      "Ġp are",
      "Ġp ure",
      "Ġp ush",
      "Ġp ina",
      "Ġp ains",
      "Ġp ipe",
      "Ġp atch",
      "Ġp ati",
      "Ġp orch",
      "Ġp omp",
      "Ġp ressed",
      "le ven",
      "le cted",
      "Ġn im",
      "Ġn aught",
      "Ġn um",
      "Ġn ag",
      "Ġn arrow",
      "Ġn aked",
      "Ġn amed",
      "Ġn onsense",
      "Ġin ter",
      "Ġin for",
      "Ġin cl",
      "ot hel",
      "on ed",
      "on ight",
      "Ġbe at",
      "Ġbe th",
      "Ġbe ings",
      "Ġbe ef",
      "Ġbe held",
      "ld ron",
      "Ġsa f",
      "Ġy onder",
      "ut ed",
      "ut ched",
      "Ġshe lls",
      "Ġshe lter",
      "ĠT u",
      "ĠT hat",
      "ĠT ime",
      "ĠT urtle",
      "hen ware",
      "ay s",
      "Ġso le",
      "Ġso rely",
      "st antly",
      "Ġas h",
      "ir rel",
      "ir ping",
      "Ġwh ilst",
      "ver sation",
      "Ġr ust",
      "Ġr ack",
      "Ġr ip",
      "Ġr attled",
      "Ġr ays",
      "ck ing",
      "Ġe art",
      "Ġe ither",
      "Ġe leven",
      "Ġst ing",
      "Ġst ar",
      "Ġst ore",
      "Ġst all",
      "Ġst air",
      "Ġst itch",
      "Ġst ool",
      "Ġst ored",
      "Ġfor b",
      "Ġfor k",
      "Ġfor wards",
      "Ġfor fe",
      "Ġfor ms",
      "et ite",
      "Ġwe ight",
      "Ġwe ighed",
      "Ġwe lcome",
      "Ġk ick",
      "Ġk rr",
      "Ġnot e",
      "Ġnot iced",
      "ch ance",
      "Ġca l",
      "Ġca ve",
      "Ġca pering",
      "Ġca ndle",
      "ad es",
      "if ul",
      "ent ion",
      "ĠThe se",
      "Ġsh are",
      "Ġsh ower",
      "Ġsh ared",
      "Ġsh ift",
      "Ġsh aking",
      "Ġsh irt",
      "Ġsh udd",
      "Ġup per",
      "Ġup set",
      "Ġall ow",
      "ke y",
      "ke ep",
      "ri or",
      "ri os",
      "Ġme ant",
      "Ġme ss",
      "Ġme ek",
      "Ġme lted",
      "Ġme asure",
      "to ld",
      "to gether",
      "Ġgo ss",
      "ĠA h",
      "ĠA gain",
      "ast e",
      "ant s",
      "ĠH ard",
      "ĠH ither",
      "ĠH IS",
      "ĠH aste",
      "ind ly",
      "Ġbr ink",
      "Ġbr ushed",
      "Ġbr idle",
      "Ġta pped",
      "Ġta pping",
      "ĠS N",
      "ĠS ing",
      "ĠS even",
      "ĠS hall",
      "ĠS udden",
      "ĠS anna",
      "Ġre ck",
      "Ġre el",
      "Ġre pe",
      "Ġre sol",
      "Ġch ap",
      "Ġch uck",
      "Ġch atter",
      "Ġch af",
      "Ġch anced",
      "Ġch affin",
      "Ġch irping",
      "il ts",
      "il iar",
      "ur s",
      "ur ry",
      "th y",
      "th ou",
      "th is",
      "th ren",
      "Ġmy ster",
      "Ġli qu",
      "Ġli cked",
      "pp ose",
      "Ġsp at",
      "Ġsp ell",
      "Ġsp end",
      "Ġsp las",
      "Ġsp ilt",
      "Ġsp urs",
      "ep ence",
      "al k",
      "al ed",
      "Ġno dded",
      "Ġag ed",
      "Ġag ree",
      "ĠW or",
      "ĠW ENT",
      "Ġj oll",
      "Ġj ingling",
      "ĠB E",
      "ĠB ear",
      "ĠB RI",
      "ĠB IR",
      "ĠB esides",
      "ĠB lack",
      "Ġal together",
      "Ġman age",
      "Ġman kind",
      "Ġde c",
      "Ġde w",
      "Ġde mand",
      "Ġle isure",
      "Ġro aring",
      "Ġwor st",
      "Ġsome body",
      "Ġsome where",
      "Ġsome time",
      "ie w",
      "ild ren",
      "Ġgi ving",
      "Ġoff er",
      "Ġhow l",
      "Ġsee ks",
      "Ġsee king",
      "Ġhome sick",
      "Ġyour selves",
      "Ġdr ain",
      "Ġdr oll",
      "Ġdr unk",
      "ĠG o",
      "ĠG ive",
      "ĠG othel",
      "Ġgood s",
      "Ġpe el",
      "Ġgr im",
      "Ġgr ove",
      "Ġgr oped",
      "Ġgr umbling",
      "Ġsu ck",
      "Ġam b",
      "Ġam use",
      "Ġlong ed",
      "Ġlong ing",
      "Ġpl un",
      "Ġpl ag",
      "Ġpl ash",
      "Ġpl ague",
      "Ġpl ume",
      "Ġpl oughed",
      "os ite",
      "ĠC AT",
      "Ġcl od",
      "Ġcl oud",
      "Ġcl amb",
      "Ġcl oak",
      "Ġcl utched",
      "Ġthought s",
      "nt s",
      "ig ue",
      "Ġback wards",
      "Ġran g",
      "Ġeat s",
      "Ġput ting",
      "Ġsoon er",
      "Ġbo il",
      "Ġbo iled",
      "Ġlo g",
      "Ġlo dging",
      "Ġpo pped",
      "Ġhorse back",
      "Ġbl az",
      "Ġcar pent",
      "Ġv iew",
      "ĠR O",
      "ĠR ED",
      "ĠR eel",
      "ft ly",
      "Ġfl utter",
      "Ġfl orins",
      "Ġthan ked",
      "ĠM aster",
      "ĠM any",
      "Ġstr iding",
      "ĠHe aven",
      "Ġmorning s",
      "Ġbed room",
      "Ġco lour",
      "row ler",
      "get able",
      "um ed",
      "ars h",
      "aw l",
      "ĠL o",
      "ĠL ong",
      "ĠF R",
      "ĠF irst",
      "ĠF rom",
      "Ġnight s",
      "Ġtailor s",
      "ĠO F",
      "ĠO ur",
      "ĠO LD",
      "Ġlay ing",
      "Ġknow ledge",
      "Ġfore tell",
      "Ġfore told",
      "Ġmake s",
      "Ġfle sh",
      "Ġheart s",
      "Ġheart y",
      "Ġheart ed",
      "Ġcat ches",
      "ion s",
      "Ġsw ore",
      "Ġsw ung",
      "Ġho pping",
      "Ġho bgo",
      "Ġmill et",
      "Ġbring ing",
      "Ġwork ing",
      "Ġbet ray",
      "Ġsho ve",
      "Ġcow ard",
      "Ġapp ear",
      "Ġapp etite",
      "Ġwa ved",
      "Ġfire side",
      "Ġmis chance",
      "Ġthrough out",
      "Ġcon qu",
      "Ġcon side",
      "Ġcon tain",
      "Ġcon versation",
      "Ġsing s",
      "Ġhun t",
      "Ġey e",
      "oy ed",
      "ĠE L",
      "Ġcare ful",
      "Ġcare less",
      "Ġjust ice",
      "Ġmo ss",
      "Ġmo ving",
      "ĠP RIN",
      "Ġsleep ers",
      "Ġcr ack",
      "Ġcr ash",
      "Ġcr acked",
      "Ġcr aft",
      "Ġun c",
      "pl ash",
      "The y",
      "The se",
      "og n",
      "Ġaw are",
      "Ġdear th",
      "Ġsl ice",
      "Ġsl aught",
      "Ġche ap",
      "Ġsm o",
      "Ġsm oke",
      "Ġsil ence",
      "Ġbig gest",
      "Ġcount ed",
      "ĠCh rist",
      "Ġcour se",
      "Ġfall s",
      "Ġper ch",
      "Ġper ish",
      "Ġper fe",
      "Ġmar ched",
      "Ġrest ing",
      "Ġclot hing",
      "so ever",
      "Ġbar n",
      "Ġbar ked",
      "Ġkeep s",
      "Ġtre ac",
      "Ġtre mb",
      "Ġtre asure",
      "Ġsn ore",
      "Ġsn ake",
      "Ġsn ail",
      "Ġsn atched",
      "Ġsn ips",
      "Ġdis enchant",
      "Ġland mark",
      "Ġbest ow",
      "Ġfat ten",
      "Ġfat igue",
      "Ġluck ily",
      "Ġjoy ful",
      "Ġjoy fully",
      "Ġjoy ously",
      "Ġtry ing",
      "Ġbu z",
      "Ġbu ild",
      "Ġcle aned",
      "Ġem br",
      "Ġstay ing",
      "Ġdraw er",
      "Ġdraw ing",
      "itc hes",
      "Ġend ed",
      "Ġhold ing",
      "bb ed",
      "bb led",
      "Ġdes ired",
      "Ġdes pair",
      "Ġjump ing",
      "Ġmaiden s",
      "Ġfetch ing",
      "ff ed",
      "tun es",
      "Ġret ire",
      "Ġfeast ing",
      "ud e",
      "ud ge",
      "ug g",
      "Ġent reat",
      "Ġbre athe",
      "Ġbre thren",
      "Ġenchant ment",
      "oun ce",
      "Ġmatter s",
      "Ġfour th",
      "Ġpu bl",
      "ift ly",
      "ĠWh y",
      "Ġfoot ed",
      "Ġrich ly",
      "Ġhast ily",
      "Ġtow el",
      "Ġel b",
      "Ġdeep est",
      "Ġcheese s",
      "Ġgate way",
      "Ġuse ful",
      "Ġrobb ed",
      "Ġcont ent",
      "AN T",
      "Be cause",
      "Th ank",
      "ĠD on",
      "ĠD ev",
      "ĠD IED",
      "Ġex ce",
      "Ġex pected",
      "Ġcau se",
      "Ġcau ldron",
      "she lls",
      "Ġhour s",
      "Ġob jection",
      "Ġcur tains",
      "Ġcask s",
      "Ġmount ed",
      "Ġsoft ened",
      "Ġprop er",
      "Ġprop hecy",
      "pr ay",
      "Ġsorrow s",
      "Ġsorrow ed",
      "Ġsix th",
      "Ġsix ty",
      "Ġmil king",
      "Ġdir t",
      "Ġlam ps",
      "Ġlam bs",
      "Ġstream ed",
      "Ġroast ed",
      "Ġpear l",
      "Ġjourney ed",
      "pen ing",
      "Ġtast ing",
      "Ġad m",
      "Ġhur ried",
      "Ġcup bo",
      "Ġfin er",
      "Ġdream t",
      "Ġdream ing",
      "Ġlau gh",
      "Ġpower ful",
      "Ġbod ies",
      "Ġcomb ed",
      "Ġcomb ing",
      "Ġcons ider",
      "Ġbargain s",
      "Ġskin s",
      "EL STILTSKIN",
      "Not hing",
      "Ġdri ve",
      "Ġdread ed",
      "Ġpri est",
      "Ġpri ze",
      "Ġnice ly",
      "Ġsal ted",
      "Ġnew ly",
      "Ġenjoy ed",
      "Ġglad ness",
      "Ġempt ied",
      "Ġfu rious",
      "Ġrid ing",
      "Ġpro cure",
      "Ġscr ape",
      "Ġscr amb",
      "Ġsqu irrel",
      "Ġwar ned",
      "Ġwar rior",
      "Ġhig hest",
      "Ġpre cious",
      "Ġpur ple",
      "Ġgod less",
      "Ġrej oice",
      "Ġspo ken",
      "Ġspo iled",
      "Ġjud ged",
      "Ġcro ssed",
      "Ġdeser t",
      "Ġdeser ve",
      "sh ip",
      "Ġve getable",
      "Ġgu ard",
      "Ġpain ter",
      "Ġpain ted",
      "Ġinv isible",
      "Ġyard s",
      "Ġshar pening",
      "Ġanim al",
      "Ġsupp orted",
      "Ġhappen s",
      "Ġbright ly",
      "Br other",
      "em ned",
      "Ġbitt er",
      "Ġfam ous",
      "Ġfam ily",
      "Ġfam iliar",
      "Ġthre epence",
      "Ġpant ry",
      "Ġins ist",
      "Ġins pected",
      "Ġins ulted",
      "Ġrasc als",
      "Ġstir ring",
      "Ġreal ity",
      "Ġrequ ire",
      "Ġcatch ing",
      "Ġmisfor tunes",
      "Ġcreat ures",
      "Ġcompanion s",
      "Ġterri ble",
      "RI ND",
      "St and",
      "St uck",
      "Ġmad am",
      "Ġden y",
      "Ġdang ling",
      "Ġgall op",
      "Ġkiss ed",
      "Ġang rily",
      "Ġsecret ly",
      "Ġcharm ing",
      "Ġjam s",
      "Ġsum mer",
      "Ġovert ake",
      "Ġunk indly",
      "Ġyear ning",
      "Ġdisco vered",
      "Ġlament ing",
      "Ġlament ations",
      "Ġmonth s",
      "US E",
      "Ġce ase",
      "Ġcu rios",
      "Ġcrow ed",
      "Ġint end",
      "Ġint ended",
      "Ġbef ell",
      "Ġbef allen",
      "ĠTO M",
      "Ġund one",
      "ĠAn other",
      "Ġchimney s",
      "Ġnose gay",
      "Ġgreed y",
      "Ġgreed iness",
      "Ġrogu es",
      "Ġrogu ery",
      "ĠGold en",
      "Ġcomr ades",
      "Ġcruel ty",
      "Ġkey s",
      "Ġdescend ed",
      "Ġindust ry",
      "Ġprov ide",
      "Ġprov ision",
      "Ġneighbour s",
      "Some thing",
      "bl in",
      "ru ly",
      "Ġsme ll",
      "Ġbless ing",
      "Ġopp ortun",
      "Ġopp osite",
      "Ġmour n",
      "Ġdaw ned",
      "Ġgaz e",
      "Ġgaz ing",
      "Ġpit ied",
      "Ġpun ish",
      "Ġpun ished",
      "Ġpull ing",
      "Ġrag ing",
      "Ġtall est",
      "ĠSt raw",
      "Ġchat ting",
      "Ġspite ful",
      "Ġspark led",
      "Ġspark ling",
      "Ġclum sy",
      "Ġclum sily",
      "Ġtrust y",
      "Ġblind ed",
      "ĠMO USE",
      "Ġenv y",
      "Ġcond ition",
      "Ġcond emned",
      "Ġappro ach",
      "Ġappro ached",
      "Ġconcer t",
      "Ġcrown s",
      "Ġprett ily",
      "Ġprett ier",
      "Ġentire ly",
      "Ġwretched ly",
      "Ġpudd ing",
      "Ġpudd ings",
      "Ġdelight ful",
      "Ġexc use",
      "Ġobser ving",
      "Ġinnoc ent",
      "Ġinnoc ence",
      "Ġmagnific ently",
      "Ġbewail ed",
      "Ġrespect able",
      "Ġsulk y",
      "Ġsulk ily",
      "Ġgentle man",
      "Ha lf",
      "So ftly",
      "Ġim mediately",
      "Ġaim ed",
      "Ġsur rounded",
      "Ġsense less",
      "Ġsign al",
      "Ġcou ple",
      "Ġfier y",
      "Ġlin nets",
      "Ġgn at",
      "Ġgar land",
      "Ġpace s",
      "Ġpedl ars",
      "Ġbes ought",
      "Ġrow ing",
      "Ġequ al",
      "Ġeag er",
      "Ġfortun ately",
      "Ġshout ing",
      "Ġbrush wood",
      "Ġbrisk er",
      "Ġrec ogn",
      "Ġrel ated",
      "ĠGR ETEL",
      "Ġsuit or",
      "Ġtrot ted",
      "Ġtrump ets",
      "Ġcommand ed",
      "Ġarr ange",
      "Ġunwill ing",
      "Ġcheer ful",
      "ĠJO RIND",
      "Ġdismiss al",
      "Ġtravell ers",
      "Ġdelic ate",
      "Ġpropos al",
      "Ġesp ied",
      "Ġprep are",
      "Ġattend ants",
      "Ġsimplet on",
      "Ġwadd ling",
      "Ġfanc ied",
      "Ġvagab onds",
      "ĠRUMP ELSTILTSKIN",
      "Cl ick",
      "Mad am",
      "On ly",
      "eent h",
      "ĠNe xt",
      "Ġtid ings",
      "Ġsigh ing",
      "Ġhum ming",
      "Ġbos om",
      "Ġbask et",
      "Ġburd en",
      "Ġcind er",
      "Ġcous in",
      "Ġmor sel",
      "Ġmast ers",
      "Ġmal ice",
      "Ġmock ingly",
      "Ġmutt ered",
      "Ġdouble t",
      "Ġlent ils",
      "Ġlone ly",
      "Ġlimp ed",
      "Ġpel ting",
      "Ġpare nts",
      "Ġpina fore",
      "Ġnim ble",
      "Ġnum ber",
      "Ġinfor med",
      "Ġincl ination",
      "Ġbeth ought",
      "Ġrust ling",
      "Ġeart henware",
      "Ġstair case",
      "Ġmess engers",
      "Ġgoss ip",
      "ĠSudden ly",
      "Ġrepe at",
      "Ġresol ved",
      "Ġchaf ed",
      "Ġchaffin ch",
      "Ġmyster ious",
      "Ġjoll ily",
      "ĠBIR D",
      "ĠBlack bird",
      "Ġsometime s",
      "Ġplag ued",
      "Ġcloud s",
      "Ġclamb ered",
      "Ġcarpent er",
      "Ġhobgo blin",
      "Ġconside red",
      "ĠPRIN C",
      "Ġtreac her",
      "Ġtremb ling",
      "Ġdisenchant ed",
      "Ġpubl ic",
      "ĠDev il",
      "Ġcupbo ard",
      "Ġscramb led",
      "Ġvegetable s",
      "Ġcurios ity"
    ]
  }
}